{
  "version": "1.0",
  "truncation": null,
  "padding": null,
  "added_tokens": [
    {
      "id": 0,
      "content": "[PAD]",
      "single_word": false,
      "lstrip": false,
      "rstrip": false,
      "normalized": false,
      "special": true
    },
    {
      "id": 1,
      "content": "[UNK]",
      "single_word": false,
      "lstrip": false,
      "rstrip": false,
      "normalized": false,
      "special": true
    },
    {
      "id": 2,
      "content": "[CLS]",
      "single_word": false,
      "lstrip": false,
      "rstrip": false,
      "normalized": false,
      "special": true
    },
    {
      "id": 3,
      "content": "[SEP]",
      "single_word": false,
      "lstrip": false,
      "rstrip": false,
      "normalized": false,
      "special": true
    },
    {
      "id": 4,
      "content": "[MASK]",
      "single_word": false,
      "lstrip": false,
      "rstrip": false,
      "normalized": false,
      "special": true
    }
  ],
  "normalizer": {
    "type": "Sequence",
    "normalizers": [
      {
        "type": "NFD"
      },
      {
        "type": "Lowercase"
      },
      {
        "type": "StripAccents"
      }
    ]
  },
  "pre_tokenizer": {
    "type": "Sequence",
    "pretokenizers": [
      {
        "type": "WhitespaceSplit"
      },
      {
        "type": "Punctuation",
        "behavior": "Isolated"
      }
    ]
  },
  "post_processor": null,
  "decoder": null,
  "model": {
    "type": "BPE",
    "dropout": null,
    "unk_token": "[UNK]",
    "continuing_subword_prefix": null,
    "end_of_word_suffix": null,
    "fuse_unk": false,
    "byte_fallback": false,
    "ignore_merges": false,
    "vocab": {
      "[PAD]": 0,
      "[UNK]": 1,
      "[CLS]": 2,
      "[SEP]": 3,
      "[MASK]": 4,
      "!": 5,
      "\"": 6,
      "%": 7,
      "&": 8,
      "'": 9,
      "(": 10,
      ")": 11,
      "+": 12,
      ",": 13,
      "-": 14,
      ".": 15,
      "/": 16,
      "0": 17,
      "1": 18,
      "2": 19,
      "3": 20,
      "4": 21,
      "5": 22,
      "6": 23,
      "7": 24,
      "8": 25,
      "9": 26,
      ":": 27,
      ";": 28,
      "=": 29,
      ">": 30,
      "?": 31,
      "[": 32,
      "\\": 33,
      "]": 34,
      "`": 35,
      "a": 36,
      "b": 37,
      "c": 38,
      "d": 39,
      "e": 40,
      "f": 41,
      "g": 42,
      "h": 43,
      "i": 44,
      "j": 45,
      "k": 46,
      "l": 47,
      "m": 48,
      "n": 49,
      "o": 50,
      "p": 51,
      "q": 52,
      "r": 53,
      "s": 54,
      "t": 55,
      "u": 56,
      "v": 57,
      "w": 58,
      "x": 59,
      "y": 60,
      "z": 61,
      "{": 62,
      "|": 63,
      "}": 64,
      "«": 65,
      "¬": 66,
      "­": 67,
      "°": 68,
      "²": 69,
      "·": 70,
      "»": 71,
      "æ": 72,
      "ı": 73,
      "ə": 74,
      "ɾ": 75,
      "ʃ": 76,
      "ʻ": 77,
      "ˈ": 78,
      "ˌ": 79,
      "ː": 80,
      "α": 81,
      "δ": 82,
      "η": 83,
      "ι": 84,
      "κ": 85,
      "λ": 86,
      "μ": 87,
      "ν": 88,
      "ο": 89,
      "ρ": 90,
      "σ": 91,
      "τ": 92,
      "χ": 93,
      "а": 94,
      "б": 95,
      "в": 96,
      "г": 97,
      "д": 98,
      "е": 99,
      "ж": 100,
      "з": 101,
      "и": 102,
      "к": 103,
      "л": 104,
      "м": 105,
      "н": 106,
      "о": 107,
      "п": 108,
      "р": 109,
      "с": 110,
      "т": 111,
      "у": 112,
      "ф": 113,
      "х": 114,
      "ц": 115,
      "ч": 116,
      "ш": 117,
      "щ": 118,
      "ъ": 119,
      "ы": 120,
      "ь": 121,
      "э": 122,
      "ю": 123,
      "я": 124,
      "і": 125,
      "ј": 126,
      "ѣ": 127,
      "ҝ": 128,
      "ү": 129,
      "ҹ": 130,
      "ӄ": 131,
      "ә": 132,
      "ա": 133,
      "բ": 134,
      "գ": 135,
      "դ": 136,
      "ե": 137,
      "թ": 138,
      "ի": 139,
      "լ": 140,
      "խ": 141,
      "կ": 142,
      "հ": 143,
      "ղ": 144,
      "յ": 145,
      "ն": 146,
      "ո": 147,
      "չ": 148,
      "պ": 149,
      "ռ": 150,
      "վ": 151,
      "տ": 152,
      "ր": 153,
      "ց": 154,
      "ւ": 155,
      "ք": 156,
      "،": 157,
      "؛": 158,
      "ء": 159,
      "ا": 160,
      "ب": 161,
      "ة": 162,
      "ت": 163,
      "ث": 164,
      "ج": 165,
      "ح": 166,
      "خ": 167,
      "د": 168,
      "ذ": 169,
      "ر": 170,
      "ز": 171,
      "س": 172,
      "ش": 173,
      "ص": 174,
      "ض": 175,
      "ط": 176,
      "ظ": 177,
      "ع": 178,
      "غ": 179,
      "ف": 180,
      "ق": 181,
      "ك": 182,
      "ل": 183,
      "م": 184,
      "ن": 185,
      "ه": 186,
      "و": 187,
      "ى": 188,
      "ي": 189,
      "٦": 190,
      "پ": 191,
      "چ": 192,
      "ژ": 193,
      "ک": 194,
      "ڭ": 195,
      "گ": 196,
      "ۋ": 197,
      "ی": 198,
      "​": 199,
      "‌": 200,
      "‎": 201,
      "‏": 202,
      "‐": 203,
      "‒": 204,
      "–": 205,
      "—": 206,
      "―": 207,
      "‖": 208,
      "‘": 209,
      "’": 210,
      "“": 211,
      "”": 212,
      "…": 213,
      "‬": 214,
      "№": 215,
      "−": 216,
      "ﭺ": 217,
      "ın": 218,
      "ər": 219,
      "an": 220,
      "ar": 221,
      "ıl": 222,
      "ır": 223,
      "də": 224,
      "ıs": 225,
      "as": 226,
      "mə": 227,
      "un": 228,
      "ay": 229,
      "lı": 230,
      "da": 231,
      "lər": 232,
      "əs": 233,
      "dı": 234,
      "az": 235,
      "al": 236,
      "və": 237,
      "ən": 238,
      "lar": 239,
      "ıy": 240,
      "us": 241,
      "ur": 242,
      "ət": 243,
      "ol": 244,
      "er": 245,
      "ının": 246,
      "dır": 247,
      "kı": 248,
      "ərb": 249,
      "on": 250,
      "cı": 251,
      "ov": 252,
      "at": 253,
      "can": 254,
      "ındə": 255,
      "azərb": 256,
      "aycan": 257,
      "azərbaycan": 258,
      "əl": 259,
      "or": 260,
      "mıs": 261,
      "aq": 262,
      "ul": 263,
      "dıl": 264,
      "et": 265,
      "tə": 266,
      "ab": 267,
      "sə": 268,
      "mu": 269,
      "sı": 270,
      "ası": 271,
      "ını": 272,
      "dən": 273,
      "dan": 274,
      "19": 275,
      "ah": 276,
      "arı": 277,
      "ag": 278,
      "am": 279,
      "ey": 280,
      "ında": 281,
      "tı": 282,
      "əm": 283,
      "bır": 284,
      "bu": 285,
      "mən": 286,
      "bə": 287,
      "lə": 288,
      "ılə": 289,
      "cu": 290,
      "ad": 291,
      "ax": 292,
      "ınə": 293,
      "ıyy": 294,
      "ərə": 295,
      "mı": 296,
      "en": 297,
      "mus": 298,
      "dov": 299,
      "du": 300,
      "lərı": 301,
      "tan": 302,
      "oy": 303,
      "lu": 304,
      "os": 305,
      "ılər": 306,
      "cə": 307,
      "qa": 308,
      "qə": 309,
      "edıl": 310,
      "bas": 311,
      "la": 312,
      "təs": 313,
      "qar": 314,
      "ermən": 315,
      "ız": 316,
      "ıyyət": 317,
      "ub": 318,
      "mısdır": 319,
      "lık": 320,
      "lan": 321,
      "ra": 322,
      "uc": 323,
      "ım": 324,
      "ıya": 325,
      "ındən": 326,
      "uz": 327,
      "xan": 328,
      "ık": 329,
      "əv": 330,
      "ına": 331,
      "man": 332,
      "ıb": 333,
      "məs": 334,
      "es": 335,
      "ec": 336,
      "ları": 337,
      "əh": 338,
      "ev": 339,
      "ko": 340,
      "lıy": 341,
      "akı": 342,
      "ver": 343,
      "ak": 344,
      "sah": 345,
      "mək": 346,
      "ısı": 347,
      "son": 348,
      "ıd": 349,
      "əsr": 350,
      "oz": 351,
      "məsı": 352,
      "kən": 353,
      "əsı": 354,
      "ma": 355,
      "tər": 356,
      "ıldə": 357,
      "og": 358,
      "tur": 359,
      "yar": 360,
      "həm": 361,
      "əy": 362,
      "ların": 363,
      "rus": 364,
      "ıq": 365,
      "tarı": 366,
      "20": 367,
      "nə": 368,
      "ması": 369,
      "tarıx": 370,
      "sər": 371,
      "18": 372,
      "av": 373,
      "yer": 374,
      "dər": 375,
      "lət": 376,
      "dur": 377,
      "qaz": 378,
      "ıc": 379,
      "ısə": 380,
      "ucun": 381,
      "ırdı": 382,
      "dovr": 383,
      "gı": 384,
      "hər": 385,
      "olun": 386,
      "ıdı": 387,
      "edır": 388,
      "əraz": 389,
      "olan": 390,
      "lıq": 391,
      "um": 392,
      "dıy": 393,
      "kec": 394,
      "ıstan": 395,
      "ox": 396,
      "yan": 397,
      "ərəf": 398,
      "unun": 399,
      "ap": 400,
      "kə": 401,
      "asında": 402,
      "ii": 403,
      "adə": 404,
      "gor": 405,
      "lərın": 406,
      "ir": 407,
      "tərəf": 408,
      "van": 409,
      "dovlət": 410,
      "ac": 411,
      "gun": 412,
      "fər": 413,
      "ok": 414,
      "kıl": 415,
      "is": 416,
      "alar": 417,
      "turk": 418,
      "qal": 419,
      "sonra": 420,
      "el": 421,
      "yaz": 422,
      "ılar": 423,
      "tun": 424,
      "na": 425,
      "bəy": 426,
      "ləs": 427,
      "ələ": 428,
      "xal": 429,
      "op": 430,
      "ədə": 431,
      "anın": 432,
      "ıllər": 433,
      "af": 434,
      "dırıl": 435,
      "ek": 436,
      "ut": 437,
      "ıst": 438,
      "mın": 439,
      "asının": 440,
      "uk": 441,
      "alı": 442,
      "ərək": 443,
      "kənd": 444,
      "su": 445,
      "mər": 446,
      "lərının": 447,
      "kımı": 448,
      "bər": 449,
      "muh": 450,
      "tıf": 451,
      "sıy": 452,
      "əsas": 453,
      "dus": 454,
      "fə": 455,
      "ıt": 456,
      "bakı": 457,
      "abr": 458,
      "may": 459,
      "səhər": 460,
      "yas": 461,
      "xalq": 462,
      "tərəfındən": 463,
      "gər": 464,
      "yə": 465,
      "onun": 466,
      "var": 467,
      "das": 468,
      "bur": 469,
      "əd": 470,
      "sır": 471,
      "ada": 472,
      "res": 473,
      "mıl": 474,
      "olar": 475,
      "oldu": 476,
      "hakı": 477,
      "urul": 478,
      "sul": 479,
      "gorə": 480,
      "sov": 481,
      "qaf": 482,
      "cox": 483,
      "atı": 484,
      "bıl": 485,
      "adı": 486,
      "mısdı": 487,
      "ermənı": 488,
      "bol": 489,
      "azərbaycanda": 490,
      "qu": 491,
      "qafqaz": 492,
      "br": 493,
      "ban": 494,
      "ətı": 495,
      "qarab": 496,
      "ان": 497,
      "məd": 498,
      "dag": 499,
      "17": 500,
      "bag": 501,
      "boy": 502,
      "ından": 503,
      "car": 504,
      "ال": 505,
      "maq": 506,
      "əsındə": 507,
      "kecır": 508,
      "qarabag": 509,
      "oglu": 510,
      "zə": 511,
      "dılər": 512,
      "199": 513,
      "hakım": 514,
      "art": 515,
      "bul": 516,
      "ermənıstan": 517,
      "em": 518,
      "ru": 519,
      "sovet": 520,
      "pub": 521,
      "zı": 522,
      "gəl": 523,
      "lən": 524,
      "gos": 525,
      "mas": 526,
      "əvvə": 527,
      "ya": 528,
      "əlı": 529,
      "00": 530,
      "musdur": 531,
      "gostər": 532,
      "cən": 533,
      "ıyyətı": 534,
      "lılar": 535,
      "kın": 536,
      "respub": 537,
      "respublık": 538,
      "qan": 539,
      "mət": 540,
      "xıl": 541,
      "ha": 542,
      "lərındə": 543,
      "azır": 544,
      "larının": 545,
      "əvvəl": 546,
      "gu": 547,
      "lıg": 548,
      "olaraq": 549,
      "ort": 550,
      "cıl": 551,
      "sən": 552,
      "ermənılər": 553,
      "rı": 554,
      "lərdə": 555,
      "15": 556,
      "gən": 557,
      "azərbaycanın": 558,
      "təq": 559,
      "tarıxı": 560,
      "koc": 561,
      "mədən": 562,
      "səf": 563,
      "dar": 564,
      "aya": 565,
      "eh": 566,
      "ayı": 567,
      "aga": 568,
      "elə": 569,
      "qey": 570,
      "tor": 571,
      "dıyı": 572,
      "hu": 573,
      "vıl": 574,
      "mal": 575,
      "cıx": 576,
      "lərınə": 577,
      "lıf": 578,
      "nəfər": 579,
      "anı": 580,
      "eyn": 581,
      "enı": 582,
      "kar": 583,
      "mır": 584,
      "sar": 585,
      "daxıl": 586,
      "ılın": 587,
      "10": 588,
      "sur": 589,
      "arasında": 590,
      "dovrun": 591,
      "haq": 592,
      "etdı": 593,
      "hok": 594,
      "re": 595,
      "lərə": 596,
      "təskıl": 597,
      "bun": 598,
      "lam": 599,
      "lərını": 600,
      "iran": 601,
      "sıl": 602,
      "onlar": 603,
      "əsər": 604,
      "tıfadə": 605,
      "dəs": 606,
      "yax": 607,
      "boyuk": 608,
      "hə": 609,
      "ent": 610,
      "edən": 611,
      "nax": 612,
      "qədər": 613,
      "las": 614,
      "ıkı": 615,
      "per": 616,
      "cənub": 617,
      "dun": 618,
      "rə": 619,
      "dın": 620,
      "araq": 621,
      "ılk": 622,
      "mun": 623,
      "muharı": 624,
      "zər": 625,
      "ərazıs": 626,
      "raf": 627,
      "sr": 628,
      "zam": 629,
      "de": 630,
      "yenı": 631,
      "osman": 632,
      "mov": 633,
      "ıstıfadə": 634,
      "ıyası": 635,
      "dım": 636,
      "azərbaycanlılar": 637,
      "haqq": 638,
      "num": 639,
      "13": 640,
      "16": 641,
      "mux": 642,
      "gen": 643,
      "hıs": 644,
      "verıl": 645,
      "12": 646,
      "sək": 647,
      "butun": 648,
      "san": 649,
      "məh": 650,
      "lıyy": 651,
      "ssr": 652,
      "xus": 653,
      "ək": 654,
      "qəbul": 655,
      "sərq": 656,
      "yasay": 657,
      "kəm": 658,
      "dıgər": 659,
      "st": 660,
      "ed": 661,
      "qər": 662,
      "xusus": 663,
      "doy": 664,
      "həy": 665,
      "sa": 666,
      "məyə": 667,
      "xv": 668,
      "mıllı": 669,
      "ərbı": 670,
      "ıncı": 671,
      "haqqında": 672,
      "gur": 673,
      "uzər": 674,
      "yara": 675,
      "bar": 676,
      "arət": 677,
      "cum": 678,
      "belə": 679,
      "alban": 680,
      "əndə": 681,
      "torp": 682,
      "ray": 683,
      "xi": 684,
      "yerləs": 685,
      "cının": 686,
      "səfəv": 687,
      "ran": 688,
      "14": 689,
      "vır": 690,
      "rusıya": 691,
      "daha": 692,
      "yən": 693,
      "doyus": 694,
      "ne": 695,
      "məhəm": 696,
      "ıyə": 697,
      "ca": 698,
      "lay": 699,
      "ayət": 700,
      "tay": 701,
      "osmanlı": 702,
      "kecırıl": 703,
      "kıs": 704,
      "ıf": 705,
      "ulu": 706,
      "sal": 707,
      "əsının": 708,
      "vəz": 709,
      "qarsı": 710,
      "dovrundə": 711,
      "məhəmməd": 712,
      "hərək": 713,
      "zən": 714,
      "həmcının": 715,
      "hazır": 716,
      "onların": 717,
      "etmək": 718,
      "əsrın": 719,
      "mat": 720,
      "sey": 721,
      "edılır": 722,
      "yaradıl": 723,
      "tab": 724,
      "cıvan": 725,
      "təsvır": 726,
      "irəv": 727,
      "kon": 728,
      "bı": 729,
      "onu": 730,
      "naxcıvan": 731,
      "mur": 732,
      "qur": 733,
      "tap": 734,
      "tut": 735,
      "yabr": 736,
      "edırdı": 737,
      "qoy": 738,
      "alan": 739,
      "lara": 740,
      "iii": 741,
      "qeyd": 742,
      "caq": 743,
      "ordus": 744,
      "qız": 745,
      "sam": 746,
      "bolg": 747,
      "həyat": 748,
      "qay": 749,
      "nadır": 750,
      "rəh": 751,
      "musəl": 752,
      "əhal": 753,
      "te": 754,
      "lərındən": 755,
      "olmusdur": 756,
      "musəlman": 757,
      "kur": 758,
      "qurul": 759,
      "rəs": 760,
      "ayr": 761,
      "198": 762,
      "bax": 763,
      "pr": 764,
      "lərdən": 765,
      "səh": 766,
      "agı": 767,
      "mərkə": 768,
      "yaxın": 769,
      "fı": 770,
      "alın": 771,
      "dılar": 772,
      "par": 773,
      "ter": 774,
      "top": 775,
      "unu": 776,
      "lıgı": 777,
      "muqa": 778,
      "lıyı": 779,
      "kocurul": 780,
      "hey": 781,
      "əsən": 782,
      "hərbı": 783,
      "tək": 784,
      "qərar": 785,
      "torpaq": 786,
      "aıd": 787,
      "rop": 788,
      "ars": 789,
      "ısg": 790,
      "qos": 791,
      "ırə": 792,
      "hur": 793,
      "ərazısındə": 794,
      "gəncə": 795,
      "ust": 796,
      "tar": 797,
      "dıq": 798,
      "200": 799,
      "vı": 800,
      "cək": 801,
      "qəz": 802,
      "ımper": 803,
      "dey": 804,
      "xə": 805,
      "arx": 806,
      "irəvan": 807,
      "say": 808,
      "yı": 809,
      "məlu": 810,
      "ənın": 811,
      "hıss": 812,
      "ıstı": 813,
      "apar": 814,
      "cav": 815,
      "ıdə": 816,
      "bırı": 817,
      "numay": 818,
      "dek": 819,
      "kəs": 820,
      "194": 821,
      "for": 822,
      "sıyası": 823,
      "cənubı": 824,
      "baglı": 825,
      "dıgı": 826,
      "evr": 827,
      "nız": 828,
      "zaq": 829,
      "tunc": 830,
      "kəmər": 831,
      "xac": 832,
      "yu": 833,
      "ılan": 834,
      "ılmıs": 835,
      "ger": 836,
      "ıyanın": 837,
      "ıyasının": 838,
      "əlaq": 839,
      "təlıf": 840,
      "qacar": 841,
      "rəhbər": 842,
      "urdu": 843,
      "olu": 844,
      "muxtəlıf": 845,
      "ılərın": 846,
      "nət": 847,
      "basla": 848,
      "əf": 849,
      "unda": 850,
      "ıllərdə": 851,
      "ırı": 852,
      "sırvan": 853,
      "qor": 854,
      "ılı": 855,
      "xarı": 856,
      "alt": 857,
      "gunu": 858,
      "30": 859,
      "sax": 860,
      "nın": 861,
      "usu": 862,
      "edılmısdır": 863,
      "ısgal": 864,
      "əsınə": 865,
      "ədəb": 866,
      "bət": 867,
      "gul": 868,
      "ıyyat": 869,
      "qədım": 870,
      "gon": 871,
      "oq": 872,
      "larına": 873,
      "ustan": 874,
      "etmısdır": 875,
      "28": 876,
      "aları": 877,
      "səbə": 878,
      "təqıl": 879,
      "hokm": 880,
      "hes": 881,
      "lıs": 882,
      "səd": 883,
      "mustəqıl": 884,
      "həmın": 885,
      "sultan": 886,
      "basqa": 887,
      "hesab": 888,
      "fık": 889,
      "asır": 890,
      "məc": 891,
      "larında": 892,
      "edılməsı": 893,
      "fəa": 894,
      "gondər": 895,
      "acı": 896,
      "qıq": 897,
      "larını": 898,
      "olkə": 899,
      "mədənıyyət": 900,
      "so": 901,
      "sec": 902,
      "sev": 903,
      "təh": 904,
      "nətıc": 905,
      "fəalıyy": 906,
      "hal": 907,
      "mo": 908,
      "dakı": 909,
      "ıbarət": 910,
      "numayəndə": 911,
      "mon": 912,
      "əyə": 913,
      "xix": 914,
      "tu": 915,
      "192": 916,
      "kom": 917,
      "əsrdə": 918,
      "cəl": 919,
      "elan": 920,
      "umu": 921,
      "lərlə": 922,
      "əsasən": 923,
      "hakımıyyətı": 924,
      "muharıb": 925,
      "ras": 926,
      "zaman": 927,
      "kısaf": 928,
      "lakın": 929,
      "gın": 930,
      "zadə": 931,
      "ılərı": 932,
      "cay": 933,
      "xs": 934,
      "yol": 935,
      "kun": 936,
      "ınkısaf": 937,
      "təbr": 938,
      "edıldı": 939,
      "cısı": 940,
      "ibr": 941,
      "maga": 942,
      "bırıncı": 943,
      "axt": 944,
      "in": 945,
      "qub": 946,
      "tən": 947,
      "ələn": 948,
      "tərkı": 949,
      "genıs": 950,
      "məlumat": 951,
      "ibrah": 952,
      "pas": 953,
      "arə": 954,
      "ılır": 955,
      "azərbaycanlı": 956,
      "mud": 957,
      "tıq": 958,
      "məm": 959,
      "lardan": 960,
      "quv": 961,
      "həd": 962,
      "ار": 963,
      "ovun": 964,
      "cud": 965,
      "hakımıyyət": 966,
      "təbrız": 967,
      "həsən": 968,
      "pol": 969,
      "ıldı": 970,
      "təd": 971,
      "yaran": 972,
      "jı": 973,
      "kər": 974,
      "mah": 975,
      "skı": 976,
      "yay": 977,
      "ка": 978,
      "asına": 979,
      "ermənılərın": 980,
      "hoku": 981,
      "tıs": 982,
      "tam": 983,
      "sız": 984,
      "komı": 985,
      "səl": 986,
      "dav": 987,
      "mub": 988,
      "bırləs": 989,
      "adlan": 990,
      "ıyyə": 991,
      "ibrahım": 992,
      "cat": 993,
      "həl": 994,
      "om": 995,
      "ılmısdır": 996,
      "dəy": 997,
      "ədəbıyyat": 998,
      "yerlı": 999,
      "movcud": 1000,
      "ıstə": 1001,
      "kıtab": 1002,
      "dılındə": 1003,
      "etdıyı": 1004,
      "1920": 1005,
      "adın": 1006,
      "edılən": 1007,
      "daglıq": 1008,
      "11": 1009,
      "uzərındə": 1010,
      "tın": 1011,
      "malı": 1012,
      "tərkıb": 1013,
      "lah": 1014,
      "1918": 1015,
      "respublıkasının": 1016,
      "nov": 1017,
      "olmus": 1018,
      "abbas": 1019,
      "kəndl": 1020,
      "yasayan": 1021,
      "barədə": 1022,
      "193": 1023,
      "edılmıs": 1024,
      "xanın": 1025,
      "masına": 1026,
      "səfəvı": 1027,
      "dekabr": 1028,
      "fəalıyyət": 1029,
      "fıl": 1030,
      "mul": 1031,
      "nazır": 1032,
      "pay": 1033,
      "ye": 1034,
      "190": 1035,
      "namə": 1036,
      "quvvə": 1037,
      "xr": 1038,
      "azad": 1039,
      "rup": 1040,
      "mərkəzı": 1041,
      "səbəb": 1042,
      "nık": 1043,
      "qars": 1044,
      "muqavıl": 1045,
      "part": 1046,
      "aslan": 1047,
      "ord": 1048,
      "etmıs": 1049,
      "sım": 1050,
      "vılayət": 1051,
      "bat": 1052,
      "azərbaycanlıların": 1053,
      "qosun": 1054,
      "goz": 1055,
      "mar": 1056,
      "ta": 1057,
      "məq": 1058,
      "cəkıl": 1059,
      "dunya": 1060,
      "dep": 1061,
      "səkıldə": 1062,
      "ordu": 1063,
      "turkıyə": 1064,
      "kor": 1065,
      "plan": 1066,
      "yal": 1067,
      "yur": 1068,
      "ələb": 1069,
      "cəm": 1070,
      "had": 1071,
      "əsını": 1072,
      "orta": 1073,
      "gə": 1074,
      "ınsan": 1075,
      "avq": 1076,
      "ərazılər": 1077,
      "bakıda": 1078,
      "olur": 1079,
      "dovru": 1080,
      "ıstır": 1081,
      "sılah": 1082,
      "hus": 1083,
      "qrup": 1084,
      "dəfə": 1085,
      "alət": 1086,
      "olo": 1087,
      "mənbə": 1088,
      "dovrdə": 1089,
      "qanun": 1090,
      "hr": 1091,
      "sun": 1092,
      "məlı": 1093,
      "unə": 1094,
      "cıd": 1095,
      "sahıb": 1096,
      "edərək": 1097,
      "davam": 1098,
      "qadın": 1099,
      "sısı": 1100,
      "tr": 1101,
      "ona": 1102,
      "cık": 1103,
      "lıyev": 1104,
      "asıya": 1105,
      "məz": 1106,
      "azərbaycana": 1107,
      "etır": 1108,
      "agır": 1109,
      "gunəs": 1110,
      "okt": 1111,
      "xususı": 1112,
      "altında": 1113,
      "bab": 1114,
      "sın": 1115,
      "ст": 1116,
      "sımal": 1117,
      "ıdarə": 1118,
      "nəzər": 1119,
      "hucum": 1120,
      "nef": 1121,
      "sısıan": 1122,
      "aılə": 1123,
      "he": 1124,
      "ırlər": 1125,
      "məsınə": 1126,
      "islam": 1127,
      "nətıcəsındə": 1128,
      "27": 1129,
      "50": 1130,
      "of": 1131,
      "alıs": 1132,
      "ənd": 1133,
      "təp": 1134,
      "huqu": 1135,
      "ssri": 1136,
      "gurc": 1137,
      "oktyabr": 1138,
      "yuk": 1139,
      "ısının": 1140,
      "duz": 1141,
      "afqaz": 1142,
      "oldugu": 1143,
      "zaqafqaz": 1144,
      "gurcustan": 1145,
      "fars": 1146,
      "kan": 1147,
      "ан": 1148,
      "muz": 1149,
      "sərhəd": 1150,
      "mubarı": 1151,
      "kəl": 1152,
      "sent": 1153,
      "ها": 1154,
      "əla": 1155,
      "dılı": 1156,
      "təsı": 1157,
      "burada": 1158,
      "muharıbə": 1159,
      "vəzıyyət": 1160,
      "gət": 1161,
      "ob": 1162,
      "se": 1163,
      "sk": 1164,
      "uy": 1165,
      "olmaq": 1166,
      "bırlık": 1167,
      "bıldır": 1168,
      "dagıstan": 1169,
      "zamanı": 1170,
      "qıs": 1171,
      "qərb": 1172,
      "dət": 1173,
      "ətraf": 1174,
      "olunur": 1175,
      "dəyıs": 1176,
      "yalnız": 1177,
      "23": 1178,
      "qət": 1179,
      "ərəb": 1180,
      "tayf": 1181,
      "neft": 1182,
      "adlı": 1183,
      "yanvar": 1184,
      "səhərı": 1185,
      "1992": 1186,
      "bak": 1187,
      "bayr": 1188,
      "noy": 1189,
      "soz": 1190,
      "məsını": 1191,
      "yarat": 1192,
      "tıfaq": 1193,
      "respublıkası": 1194,
      "huseyn": 1195,
      "sentyabr": 1196,
      "the": 1197,
      "yox": 1198,
      "ск": 1199,
      "araz": 1200,
      "larda": 1201,
      "ısıq": 1202,
      "hıssəsı": 1203,
      "cın": 1204,
      "fət": 1205,
      "hec": 1206,
      "sak": 1207,
      "ılab": 1208,
      "daır": 1209,
      "etdır": 1210,
      "tıt": 1211,
      "olunmus": 1212,
      "mırzə": 1213,
      "munası": 1214,
      "həyata": 1215,
      "bılər": 1216,
      "edı": 1217,
      "tık": 1218,
      "lub": 1219,
      "ımz": 1220,
      "əhlə": 1221,
      "sıyah": 1222,
      "avqust": 1223,
      "noyabr": 1224,
      "hələ": 1225,
      "muəy": 1226,
      "məhkə": 1227,
      "gıl": 1228,
      "qılab": 1229,
      "rat": 1230,
      "tələb": 1231,
      "zıd": 1232,
      "ست": 1233,
      "abıdə": 1234,
      "ostan": 1235,
      "baslan": 1236,
      "sıyas": 1237,
      "eynı": 1238,
      "25": 1239,
      "əb": 1240,
      "əmə": 1241,
      "ılması": 1242,
      "əsgər": 1243,
      "ənən": 1244,
      "muəl": 1245,
      "adlar": 1246,
      "dog": 1247,
      "pl": 1248,
      "usyan": 1249,
      "olojı": 1250,
      "zaqafqazıya": 1251,
      "hət": 1252,
      "otur": 1253,
      "kıcık": 1254,
      "sık": 1255,
      "uzrə": 1256,
      "oldugunu": 1257,
      "rəq": 1258,
      "mart": 1259,
      "nı": 1260,
      "ot": 1261,
      "yat": 1262,
      "ancaq": 1263,
      "dənız": 1264,
      "koman": 1265,
      "sahın": 1266,
      "sımv": 1267,
      "gətır": 1268,
      "munasıbət": 1269,
      "muəyyən": 1270,
      "bın": 1271,
      "cevr": 1272,
      "don": 1273,
      "han": 1274,
      "xar": 1275,
      "ер": 1276,
      "uzun": 1277,
      "gener": 1278,
      "من": 1279,
      "etmə": 1280,
      "bəzı": 1281,
      "lıgında": 1282,
      "sənəd": 1283,
      "yenıdən": 1284,
      "hərəkət": 1285,
      "adan": 1286,
      "bunun": 1287,
      "dr": 1288,
      "guc": 1289,
      "qır": 1290,
      "yun": 1291,
      "ов": 1292,
      "ayev": 1293,
      "oldur": 1294,
      "asıq": 1295,
      "təsər": 1296,
      "nəz": 1297,
      "saray": 1298,
      "bundan": 1299,
      "dəstə": 1300,
      "qızıl": 1301,
      "muddət": 1302,
      "bn": 1303,
      "bal": 1304,
      "sus": 1305,
      "soy": 1306,
      "baslay": 1307,
      "ıstırak": 1308,
      "sayı": 1309,
      "ərz": 1310,
      "musıq": 1311,
      "ıqtıs": 1312,
      "ismay": 1313,
      "istın": 1314,
      "qurultay": 1315,
      "eo": 1316,
      "rel": 1317,
      "رب": 1318,
      "ustun": 1319,
      "ova": 1320,
      "səxs": 1321,
      "qəbır": 1322,
      "fərq": 1323,
      "cıxar": 1324,
      "yasayıs": 1325,
      "deyıl": 1326,
      "gerı": 1327,
      "tədqıq": 1328,
      "bırlıkdə": 1329,
      "21": 1330,
      "26": 1331,
      "dık": 1332,
      "lıklə": 1333,
      "məsələ": 1334,
      "tərcu": 1335,
      "aprel": 1336,
      "ordusu": 1337,
      "ıstıan": 1338,
      "sosı": 1339,
      "hadısə": 1340,
      "istınadlar": 1341,
      "fat": 1342,
      "mey": 1343,
      "qr": 1344,
      "artıq": 1345,
      "məg": 1346,
      "təb": 1347,
      "muasır": 1348,
      "məsəl": 1349,
      "larından": 1350,
      "qoyul": 1351,
      "bolgə": 1352,
      "xrıstıan": 1353,
      "24": 1354,
      "dası": 1355,
      "dını": 1356,
      "pre": 1357,
      "ərı": 1358,
      "197": 1359,
      "dovlətı": 1360,
      "lıgının": 1361,
      "muəllıf": 1362,
      "bor": 1363,
      "xət": 1364,
      "yon": 1365,
      "asını": 1366,
      "196": 1367,
      "amı": 1368,
      "əhəm": 1369,
      "malık": 1370,
      "təsərru": 1371,
      "vaxt": 1372,
      "از": 1373,
      "ısında": 1374,
      "olog": 1375,
      "tarıxındə": 1376,
      "180": 1377,
      "ərazı": 1378,
      "rayon": 1379,
      "huquq": 1380,
      "dərb": 1381,
      "gan": 1382,
      "mem": 1383,
      "ای": 1384,
      "olub": 1385,
      "təy": 1386,
      "olundu": 1387,
      "basladı": 1388,
      "əlavə": 1389,
      "general": 1390,
      "il": 1391,
      "qat": 1392,
      "lım": 1393,
      "təm": 1394,
      "masını": 1395,
      "tutul": 1396,
      "xarıcı": 1397,
      "məhkəmə": 1398,
      "məglub": 1399,
      "day": 1400,
      "ии": 1401,
      "dal": 1402,
      "ıyul": 1403,
      "təmın": 1404,
      "195": 1405,
      "əvı": 1406,
      "lıyının": 1407,
      "000": 1408,
      "formal": 1409,
      "deport": 1410,
      "prezıd": 1411,
      "cər": 1412,
      "im": 1413,
      "met": 1414,
      "tov": 1415,
      "vəzı": 1416,
      "əyalət": 1417,
      "sosıal": 1418,
      "memar": 1419,
      "vası": 1420,
      "را": 1421,
      "alek": 1422,
      "muda": 1423,
      "bəyan": 1424,
      "məshur": 1425,
      "əhat": 1426,
      "dovlətının": 1427,
      "sulh": 1428,
      "əvvəllərındə": 1429,
      "necə": 1430,
      "hərəkat": 1431,
      "ge": 1432,
      "mos": 1433,
      "sıst": 1434,
      "mətı": 1435,
      "luq": 1436,
      "hacı": 1437,
      "mədənı": 1438,
      "məcbur": 1439,
      "22": 1440,
      "29": 1441,
      "aıl": 1442,
      "ke": 1443,
      "nəs": 1444,
      "po": 1445,
      "zıb": 1446,
      "وا": 1447,
      "asagı": 1448,
      "əsasında": 1449,
      "azı": 1450,
      "alman": 1451,
      "olması": 1452,
      "ern": 1453,
      "ləg": 1454,
      "gostərır": 1455,
      "ordusunun": 1456,
      "əhalının": 1457,
      "mərkəz": 1458,
      "olmaqla": 1459,
      "dul": 1460,
      "kat": 1461,
      "vur": 1462,
      "zul": 1463,
      "ıyaya": 1464,
      "təx": 1465,
      "avrop": 1466,
      "xviii": 1467,
      "yerləsən": 1468,
      "hokumət": 1469,
      "sısıanov": 1470,
      "ismayıl": 1471,
      "mad": 1472,
      "xx": 1473,
      "ıldən": 1474,
      "larla": 1475,
      "etməsı": 1476,
      "tıv": 1477,
      "təsır": 1478,
      "uzv": 1479,
      "xanı": 1480,
      "əsrlərdə": 1481,
      "gələn": 1482,
      "surət": 1483,
      "təskılat": 1484,
      "yaradılması": 1485,
      "1988": 1486,
      "rən": 1487,
      "tət": 1488,
      "xey": 1489,
      "на": 1490,
      "ور": 1491,
      "ıyun": 1492,
      "bədı": 1493,
      "kəndı": 1494,
      "məruz": 1495,
      "sənət": 1496,
      "hazırlan": 1497,
      "xəzər": 1498,
      "fevr": 1499,
      "maz": 1500,
      "qon": 1501,
      "and": 1502,
      "mız": 1503,
      "tanın": 1504,
      "luk": 1505,
      "qəd": 1506,
      "edılırdı": 1507,
      "təsdıq": 1508,
      "sahban": 1509,
      "buna": 1510,
      "əsərı": 1511,
      "samax": 1512,
      "gır": 1513,
      "qab": 1514,
      "asan": 1515,
      "cəb": 1516,
      "xana": 1517,
      "qafqazda": 1518,
      "cumhur": 1519,
      "fıkr": 1520,
      "darı": 1521,
      "hın": 1522,
      "kut": 1523,
      "qol": 1524,
      "ud": 1525,
      "ند": 1526,
      "ərdə": 1527,
      "rusıyanın": 1528,
      "aların": 1529,
      "dırılməsı": 1530,
      "ısteh": 1531,
      "mıllət": 1532,
      "bagda": 1533,
      "ıqtısadı": 1534,
      "fran": 1535,
      "uf": 1536,
      "uq": 1537,
      "za": 1538,
      "etməyə": 1539,
      "səkı": 1540,
      "ıkıncı": 1541,
      "verdı": 1542,
      "səra": 1543,
      "fərman": 1544,
      "cılıq": 1545,
      "onlara": 1546,
      "xususılə": 1547,
      "yənı": 1548,
      "cavad": 1549,
      "cəlal": 1550,
      "əhatə": 1551,
      "80": 1552,
      "cılar": 1553,
      "tub": 1554,
      "xıd": 1555,
      "əhməd": 1556,
      "qazan": 1557,
      "alarında": 1558,
      "sulal": 1559,
      "1991": 1560,
      "cılı": 1561,
      "arxe": 1562,
      "təyın": 1563,
      "zıbatı": 1564,
      "kol": 1565,
      "əz": 1566,
      "اذ": 1567,
      "جان": 1568,
      "basa": 1569,
      "lıyını": 1570,
      "189": 1571,
      "edırdılər": 1572,
      "qala": 1573,
      "mayaraq": 1574,
      "kons": 1575,
      "oqraf": 1576,
      "payt": 1577,
      "əhəmıyyət": 1578,
      "mudafı": 1579,
      "dərə": 1580,
      "nəsr": 1581,
      "ror": 1582,
      "ما": 1583,
      "əsındən": 1584,
      "ətın": 1585,
      "məktub": 1586,
      "qalası": 1587,
      "adam": 1588,
      "terror": 1589,
      "fılm": 1590,
      "edə": 1591,
      "kv": 1592,
      "lıl": 1593,
      "meh": 1594,
      "ба": 1595,
      "ين": 1596,
      "ırdılar": 1597,
      "una": 1598,
      "acaq": 1599,
      "alarının": 1600,
      "ləndır": 1601,
      "naxıs": 1602,
      "yaxınlıgında": 1603,
      "xacdas": 1604,
      "sevık": 1605,
      "adlandırıl": 1606,
      "fevral": 1607,
      "qıy": 1608,
      "qul": 1609,
      "xəl": 1610,
      "yetır": 1611,
      "ınqılab": 1612,
      "ınzıbatı": 1613,
      "ılən": 1614,
      "əldə": 1615,
      "etnık": 1616,
      "mıdıy": 1617,
      "olunmusdur": 1618,
      "ərazısı": 1619,
      "sərqı": 1620,
      "xvi": 1621,
      "səfəvılər": 1622,
      "qubern": 1623,
      "komandan": 1624,
      "rayonunun": 1625,
      "beyn": 1626,
      "dem": 1627,
      "fa": 1628,
      "feo": 1629,
      "it": 1630,
      "qulu": 1631,
      "əlıyev": 1632,
      "ılməsı": 1633,
      "beynəl": 1634,
      "gey": 1635,
      "kam": 1636,
      "ug": 1637,
      "xoy": 1638,
      "ра": 1639,
      "məlık": 1640,
      "ala": 1641,
      "atrop": 1642,
      "edırlər": 1643,
      "yazırdı": 1644,
      "əks": 1645,
      "seyx": 1646,
      "pros": 1647,
      "muharıbəsı": 1648,
      "tərkıbınə": 1649,
      "mubarızə": 1650,
      "ımzalan": 1651,
      "ləgv": 1652,
      "bən": 1653,
      "bız": 1654,
      "kır": 1655,
      "masında": 1656,
      "odən": 1657,
      "to": 1658,
      "azım": 1659,
      "etı": 1660,
      "amız": 1661,
      "bəzə": 1662,
      "ıyada": 1663,
      "məscı": 1664,
      "əsrlər": 1665,
      "cıxıs": 1666,
      "tez": 1667,
      "hokmdar": 1668,
      "məqsə": 1669,
      "uygun": 1670,
      "beynəlxalq": 1671,
      "atropat": 1672,
      "bac": 1673,
      "gını": 1674,
      "qətı": 1675,
      "daırə": 1676,
      "abs": 1677,
      "muqəd": 1678,
      "tıma": 1679,
      "musdu": 1680,
      "məsının": 1681,
      "qazax": 1682,
      "sufı": 1683,
      "muhum": 1684,
      "173": 1685,
      "duny": 1686,
      "hıssə": 1687,
      "xvii": 1688,
      "fətəlı": 1689,
      "dayan": 1690,
      "kul": 1691,
      "اب": 1692,
      "ısını": 1693,
      "ahı": 1694,
      "bolsevık": 1695,
      "numunə": 1696,
      "gurcu": 1697,
      "rəhbərlıyı": 1698,
      "polk": 1699,
      "tıtus": 1700,
      "konstıtus": 1701,
      "cam": 1702,
      "cılər": 1703,
      "dord": 1704,
      "lındə": 1705,
      "ugur": 1706,
      "ен": 1707,
      "mədov": 1708,
      "ıyan": 1709,
      "ıyar": 1710,
      "ahan": 1711,
      "əmır": 1712,
      "qara": 1713,
      "qarabagın": 1714,
      "kəndlılər": 1715,
      "edıb": 1716,
      "ərzındə": 1717,
      "dərbənd": 1718,
      "məscıdı": 1719,
      "ba": 1720,
      "cun": 1721,
      "fəhlə": 1722,
      "kn": 1723,
      "lın": 1724,
      "od": 1725,
      "poz": 1726,
      "ro": 1727,
      "yus": 1728,
      "ant": 1729,
      "vən": 1730,
      "cuq": 1731,
      "lıyın": 1732,
      "dıyını": 1733,
      "okrat": 1734,
      "ədar": 1735,
      "sənay": 1736,
      "lıyyat": 1737,
      "uzərınə": 1738,
      "məmməd": 1739,
      "hokumətı": 1740,
      "sıyasət": 1741,
      "meydan": 1742,
      "samaxı": 1743,
      "kutlə": 1744,
      "اذرب": 1745,
      "40": 1746,
      "emı": 1747,
      "tat": 1748,
      "ор": 1749,
      "به": 1750,
      "لا": 1751,
      "ılərə": 1752,
      "ırlar": 1753,
      "askar": 1754,
      "ıyev": 1755,
      "səm": 1756,
      "sıx": 1757,
      "danısıq": 1758,
      "olunan": 1759,
      "kecmıs": 1760,
      "ləsdırıl": 1761,
      "tıflıs": 1762,
      "muxtar": 1763,
      "kecırılməsı": 1764,
      "saxlan": 1765,
      "xıdmət": 1766,
      "cog": 1767,
      "cagır": 1768,
      "gotur": 1769,
      "kr": 1770,
      "sat": 1771,
      "sımalı": 1772,
      "qac": 1773,
      "qacaq": 1774,
      "qarsıl": 1775,
      "əddın": 1776,
      "cılık": 1777,
      "mədənıyyətı": 1778,
      "rayonu": 1779,
      "təklıf": 1780,
      "hrəm": 1781,
      "nəzərdə": 1782,
      "oldurul": 1783,
      "səraıt": 1784,
      "tımaı": 1785,
      "70": 1786,
      "ham": 1787,
      "nag": 1788,
      "rol": 1789,
      "ар": 1790,
      "ınt": 1791,
      "ıncə": 1792,
      "lız": 1793,
      "ənı": 1794,
      "ıylə": 1795,
      "usaq": 1796,
      "atəs": 1797,
      "ator": 1798,
      "orqan": 1799,
      "entı": 1800,
      "qəhrəm": 1801,
      "məskun": 1802,
      "komıs": 1803,
      "akt": 1804,
      "yazı": 1805,
      "suf": 1806,
      "muhasır": 1807,
      "həb": 1808,
      "teat": 1809,
      "səhr": 1810,
      "xəbər": 1811,
      "cavab": 1812,
      "əlaqədar": 1813,
      "hokmdarı": 1814,
      "umum": 1815,
      "umumı": 1816,
      "mulk": 1817,
      "yurus": 1818,
      "yuksək": 1819,
      "muqəddəs": 1820,
      "cograf": 1821,
      "60": 1822,
      "qut": 1823,
      "varı": 1824,
      "xor": 1825,
      "əmək": 1826,
      "بر": 1827,
      "در": 1828,
      "ındı": 1829,
      "ılırdı": 1830,
      "ılmısdı": 1831,
      "kım": 1832,
      "lədən": 1833,
      "axun": 1834,
      "verən": 1835,
      "hazırda": 1836,
      "kurd": 1837,
      "baxmayaraq": 1838,
      "heyvan": 1839,
      "sakın": 1840,
      "musıqı": 1841,
      "təsərrufat": 1842,
      "formalas": 1843,
      "feodal": 1844,
      "bası": 1845,
      "oc": 1846,
      "xat": 1847,
      "ли": 1848,
      "dəmır": 1849,
      "ast": 1850,
      "undə": 1851,
      "lanan": 1852,
      "məktəb": 1853,
      "1828": 1854,
      "kəndındə": 1855,
      "eht": 1856,
      "hucu": 1857,
      "regı": 1858,
      "tabe": 1859,
      "rəsmı": 1860,
      "muzak": 1861,
      "ско": 1862,
      "arxeolojı": 1863,
      "mudafıə": 1864,
      "ittıfaq": 1865,
      "bıq": 1866,
      "bıt": 1867,
      "calıs": 1868,
      "ic": 1869,
      "me": 1870,
      "nıs": 1871,
      "qov": 1872,
      "suz": 1873,
      "zın": 1874,
      "ələrı": 1875,
      "ıyasında": 1876,
      "asım": 1877,
      "akter": 1878,
      "tərk": 1879,
      "yerınə": 1880,
      "respublıka": 1881,
      "əhalısı": 1882,
      "əhalısının": 1883,
      "numayəndələrı": 1884,
      "monqol": 1885,
      "komıtəsı": 1886,
      "sılahlı": 1887,
      "xarakter": 1888,
      "imper": 1889,
      "gız": 1890,
      "ələr": 1891,
      "وال": 1892,
      "ıslam": 1893,
      "mut": 1894,
      "tıkıl": 1895,
      "əmın": 1896,
      "təsının": 1897,
      "rak": 1898,
      "xanım": 1899,
      "lıyə": 1900,
      "olunurdu": 1901,
      "iranın": 1902,
      "isbn": 1903,
      "bəyın": 1904,
      "lıgın": 1905,
      "karvan": 1906,
      "lasdır": 1907,
      "beləlıklə": 1908,
      "1921": 1909,
      "moskv": 1910,
      "sahbanu": 1911,
      "atropaten": 1912,
      "78": 1913,
      "mını": 1914,
      "رو": 1915,
      "ıslər": 1916,
      "muvə": 1917,
      "tıb": 1918,
      "must": 1919,
      "oyun": 1920,
      "ıbı": 1921,
      "cumlədən": 1922,
      "sırvansah": 1923,
      "moh": 1924,
      "pasa": 1925,
      "ətrafında": 1926,
      "dogru": 1927,
      "tədqıqat": 1928,
      "kecıd": 1929,
      "demokrat": 1930,
      "dının": 1931,
      "fıq": 1932,
      "nətı": 1933,
      "əvəz": 1934,
      "го": 1935,
      "ınc": 1936,
      "ıslə": 1937,
      "ayrı": 1938,
      "lıt": 1939,
      "etmısdı": 1940,
      "təbı": 1941,
      "tıcar": 1942,
      "yanın": 1943,
      "dastan": 1944,
      "masından": 1945,
      "əksər": 1946,
      "yuxarı": 1947,
      "təhlu": 1948,
      "təpər": 1949,
      "bununla": 1950,
      "bədıı": 1951,
      "bad": 1952,
      "cur": 1953,
      "layı": 1954,
      "ıv": 1955,
      "по": 1956,
      "ре": 1957,
      "ıslah": 1958,
      "əst": 1959,
      "dılə": 1960,
      "ızm": 1961,
      "ıbar": 1962,
      "məsındə": 1963,
      "ıddı": 1964,
      "təqdım": 1965,
      "etdık": 1966,
      "1989": 1967,
      "məmmədov": 1968,
      "həlak": 1969,
      "muzey": 1970,
      "yusıf": 1971,
      "məskunlas": 1972,
      "nətıcə": 1973,
      "lem": 1974,
      "sag": 1975,
      "ırdılər": 1976,
      "ısındə": 1977,
      "asından": 1978,
      "mısal": 1979,
      "etıbar": 1980,
      "təbə": 1981,
      "sərt": 1982,
      "adət": 1983,
      "ıllərındə": 1984,
      "yasa": 1985,
      "yasadı": 1986,
      "ermənıstana": 1987,
      "kocur": 1988,
      "qeyrı": 1989,
      "demək": 1990,
      "muracı": 1991,
      "kommun": 1992,
      "batal": 1993,
      "memarlıq": 1994,
      "31": 1995,
      "malar": 1996,
      "nər": 1997,
      "qın": 1998,
      "zərb": 1999,
      "ana": 2000,
      "arran": 2001,
      "ılık": 2002,
      "məxs": 2003,
      "olma": 2004,
      "etn": 2005,
      "etdılər": 2006,
      "abad": 2007,
      "mug": 2008,
      "oyn": 2009,
      "kənar": 2010,
      "tarıxlı": 2011,
      "turkıy": 2012,
      "yazdıgı": 2013,
      "bılmə": 2014,
      "əsərındə": 2015,
      "qızı": 2016,
      "1948": 2017,
      "əfsar": 2018,
      "tamam": 2019,
      "susa": 2020,
      "vasıtəs": 2021,
      "avropa": 2022,
      "mıdıya": 2023,
      "məxsus": 2024,
      "esı": 2025,
      "mol": 2026,
      "masının": 2027,
      "qus": 2028,
      "sarı": 2029,
      "xu": 2030,
      "ılıb": 2031,
      "olum": 2032,
      "onları": 2033,
      "mənsə": 2034,
      "axır": 2035,
      "ıbn": 2036,
      "olunması": 2037,
      "dusmən": 2038,
      "ıttıfaq": 2039,
      "ermənıstanın": 2040,
      "əlıf": 2041,
      "verılməsı": 2042,
      "kocurulən": 2043,
      "heydər": 2044,
      "həll": 2045,
      "tərkıbındə": 2046,
      "azadlıq": 2047,
      "muqavıləsı": 2048,
      "gəz": 2049,
      "cəbh": 2050,
      "axundov": 2051,
      "tıcarət": 2052,
      "nar": 2053,
      "qəl": 2054,
      "sav": 2055,
      "vah": 2056,
      "во": 2057,
      "dəf": 2058,
      "dəkı": 2059,
      "məyı": 2060,
      "vətən": 2061,
      "əlyaz": 2062,
      "danıs": 2063,
      "axtı": 2064,
      "enın": 2065,
      "məsələn": 2066,
      "turkmən": 2067,
      "mayan": 2068,
      "1993": 2069,
      "ermənıstanda": 2070,
      "sovetının": 2071,
      "lıgını": 2072,
      "məhsul": 2073,
      "hərəkatı": 2074,
      "ıstəy": 2075,
      "prezıdent": 2076,
      "təxmın": 2077,
      "cunkı": 2078,
      "muzakırə": 2079,
      "mustaf": 2080,
      "rəm": 2081,
      "zıy": 2082,
      "ıdılər": 2083,
      "ия": 2084,
      "حد": 2085,
      "lıb": 2086,
      "dam": 2087,
      "əsır": 2088,
      "atur": 2089,
      "bəz": 2090,
      "cəz": 2091,
      "məsındən": 2092,
      "yaralan": 2093,
      "yerı": 2094,
      "ıctımaı": 2095,
      "qalan": 2096,
      "vardır": 2097,
      "atıv": 2098,
      "1990": 2099,
      "kıncı": 2100,
      "sarayı": 2101,
      "yerləsdırıl": 2102,
      "fıkır": 2103,
      "monast": 2104,
      "quba": 2105,
      "mahal": 2106,
      "səlcuq": 2107,
      "nazırlər": 2108,
      "əməlıyyat": 2109,
      "hətta": 2110,
      "guclu": 2111,
      "deportas": 2112,
      "muracıət": 2113,
      "kommunıst": 2114,
      "baz": 2115,
      "fuz": 2116,
      "goy": 2117,
      "lat": 2118,
      "mının": 2119,
      "nəsı": 2120,
      "pıs": 2121,
      "ود": 2122,
      "يل": 2123,
      "ılındə": 2124,
      "erı": 2125,
      "orı": 2126,
      "dılının": 2127,
      "eyman": 2128,
      "bəh": 2129,
      "ləz": 2130,
      "lugu": 2131,
      "ıyyətının": 2132,
      "ərazıdə": 2133,
      "dıyyat": 2134,
      "yanası": 2135,
      "sıra": 2136,
      "suleyman": 2137,
      "boyu": 2138,
      "ortaya": 2139,
      "daxıldır": 2140,
      "iranda": 2141,
      "dəstəsı": 2142,
      "aleksan": 2143,
      "sıstem": 2144,
      "xeylı": 2145,
      "knyaz": 2146,
      "kutləvı": 2147,
      "vasıtəsılə": 2148,
      "gılan": 2149,
      "pər": 2150,
      "qqətı": 2151,
      "sab": 2152,
      "yag": 2153,
      "ımı": 2154,
      "anad": 2155,
      "asılı": 2156,
      "erkən": 2157,
      "eramız": 2158,
      "mum": 2159,
      "1917": 2160,
      "verdıyı": 2161,
      "kecırdı": 2162,
      "oper": 2163,
      "bərp": 2164,
      "səhərındə": 2165,
      "hakımı": 2166,
      "ıfadə": 2167,
      "qurban": 2168,
      "tex": 2169,
      "parlam": 2170,
      "kocurulməsı": 2171,
      "məqsəd": 2172,
      "qısa": 2173,
      "tərcuməsı": 2174,
      "qəhrəman": 2175,
      "muvəqqətı": 2176,
      "təxmınən": 2177,
      "bay": 2178,
      "cılərı": 2179,
      "fon": 2180,
      "gah": 2181,
      "ku": 2182,
      "mam": 2183,
      "pəhlə": 2184,
      "qo": 2185,
      "talıs": 2186,
      "است": 2187,
      "يجان": 2188,
      "ılıq": 2189,
      "ıllərın": 2190,
      "ısın": 2191,
      "olurdu": 2192,
      "dırı": 2193,
      "səy": 2194,
      "əmr": 2195,
      "adını": 2196,
      "oglan": 2197,
      "yaradı": 2198,
      "bəylər": 2199,
      "mayın": 2200,
      "burax": 2201,
      "əvvəlkı": 2202,
      "bunu": 2203,
      "qayn": 2204,
      "arxıv": 2205,
      "kəndlılərın": 2206,
      "deput": 2207,
      "sımvo": 2208,
      "təmsıl": 2209,
      "vəzıf": 2210,
      "ərdəbıl": 2211,
      "proses": 2212,
      "səhrıstan": 2213,
      "ıncəsən": 2214,
      "49": 2215,
      "bes": 2216,
      "mag": 2217,
      "maraq": 2218,
      "qı": 2219,
      "qərbı": 2220,
      "saq": 2221,
      "vər": 2222,
      "vılə": 2223,
      "xiii": 2224,
      "yuz": 2225,
      "yolun": 2226,
      "مد": 2227,
      "dıvan": 2228,
      "ıyasına": 2229,
      "ullu": 2230,
      "cəh": 2231,
      "ıman": 2232,
      "ımkan": 2233,
      "tərtıb": 2234,
      "dərın": 2235,
      "ıcra": 2236,
      "oxun": 2237,
      "gorus": 2238,
      "ləsdır": 2239,
      "subu": 2240,
      "cılıy": 2241,
      "nəfərlık": 2242,
      "daxılı": 2243,
      "yaxsı": 2244,
      "movz": 2245,
      "zəngın": 2246,
      "tapılmıs": 2247,
      "baxım": 2248,
      "muqavılə": 2249,
      "qəzet": 2250,
      "məlum": 2251,
      "əfqan": 2252,
      "koroglu": 2253,
      "hansı": 2254,
      "nəzarət": 2255,
      "tərcumə": 2256,
      "bəyanna": 2257,
      "xəlıl": 2258,
      "mumkun": 2259,
      "cətın": 2260,
      "gədə": 2261,
      "iv": 2262,
      "ley": 2263,
      "nak": 2264,
      "pad": 2265,
      "rum": 2266,
      "بن": 2267,
      "ير": 2268,
      "olkən": 2269,
      "səfər": 2270,
      "xanlıq": 2271,
      "xanlıgı": 2272,
      "yazılmıs": 2273,
      "həmə": 2274,
      "bolgədə": 2275,
      "parc": 2276,
      "kəmərlərın": 2277,
      "zamanda": 2278,
      "gozəl": 2279,
      "təpə": 2280,
      "dəyısık": 2281,
      "sıyahısı": 2282,
      "tətbıq": 2283,
      "bagdad": 2284,
      "yasamıs": 2285,
      "38": 2286,
      "bəsı": 2287,
      "her": 2288,
      "hor": 2289,
      "kısı": 2290,
      "lal": 2291,
      "pan": 2292,
      "qəs": 2293,
      "qları": 2294,
      "sp": 2295,
      "ses": 2296,
      "xt": 2297,
      "yarı": 2298,
      "ول": 2299,
      "ırəlı": 2300,
      "ayətı": 2301,
      "allah": 2302,
      "urm": 2303,
      "dırmaq": 2304,
      "qamət": 2305,
      "evıc": 2306,
      "sonu": 2307,
      "oguz": 2308,
      "187": 2309,
      "tərəfdən": 2310,
      "alarından": 2311,
      "naıl": 2312,
      "səhərının": 2313,
      "dasıy": 2314,
      "xiv": 2315,
      "qacarlar": 2316,
      "qorun": 2317,
      "quvvələrı": 2318,
      "bayram": 2319,
      "rəqs": 2320,
      "ıstehsal": 2321,
      "əhəmıyyətlı": 2322,
      "ugr": 2323,
      "odənc": 2324,
      "məqsədılə": 2325,
      "teatr": 2326,
      "anadolu": 2327,
      "fatı": 2328,
      "lının": 2329,
      "mk": 2330,
      "pı": 2331,
      "pul": 2332,
      "ид": 2333,
      "ист": 2334,
      "ль": 2335,
      "في": 2336,
      "ون": 2337,
      "ıncısı": 2338,
      "unı": 2339,
      "dagı": 2340,
      "dıllı": 2341,
      "təqə": 2342,
      "sıt": 2343,
      "dud": 2344,
      "ıka": 2345,
      "ogl": 2346,
      "188": 2347,
      "dərv": 2348,
      "kıls": 2349,
      "elmı": 2350,
      "dasları": 2351,
      "dasnak": 2352,
      "sovetı": 2353,
      "munaq": 2354,
      "konfran": 2355,
      "sədr": 2356,
      "seck": 2357,
      "kərım": 2358,
      "adlandır": 2359,
      "qarsısında": 2360,
      "sahıbkar": 2361,
      "plov": 2362,
      "ologıyası": 2363,
      "cılıgı": 2364,
      "bəzək": 2365,
      "deputat": 2366,
      "35": 2367,
      "47": 2368,
      "aət": 2369,
      "cev": 2370,
      "gına": 2371,
      "ibn": 2372,
      "ikıncı": 2373,
      "rar": 2374,
      "raz": 2375,
      "rəy": 2376,
      "sor": 2377,
      "tel": 2378,
      "ро": 2379,
      "ян": 2380,
      "ıns": 2381,
      "ınan": 2382,
      "ara": 2383,
      "undən": 2384,
      "dıgını": 2385,
      "ola": 2386,
      "azərbaycanı": 2387,
      "təz": 2388,
      "abəy": 2389,
      "mənın": 2390,
      "məntəqə": 2391,
      "dugu": 2392,
      "oyrən": 2393,
      "isgən": 2394,
      "istıq": 2395,
      "sonrakı": 2396,
      "elm": 2397,
      "dırılması": 2398,
      "mınıl": 2399,
      "sual": 2400,
      "qulıyev": 2401,
      "cıld": 2402,
      "gənc": 2403,
      "160": 2404,
      "zəngəz": 2405,
      "qurult": 2406,
      "rəssam": 2407,
      "prob": 2408,
      "təkcə": 2409,
      "ımperıyasının": 2410,
      "acıq": 2411,
      "komıtəsının": 2412,
      "muqavıləsının": 2413,
      "qosunlarının": 2414,
      "mubarız": 2415,
      "bork": 2416,
      "ilk": 2417,
      "fıkrıncə": 2418,
      "paytaxtı": 2419,
      "karvansar": 2420,
      "layıh": 2421,
      "nərıman": 2422,
      "aleksandr": 2423,
      "zəngəzur": 2424,
      "500": 2425,
      "cul": 2426,
      "kaf": 2427,
      "laq": 2428,
      "pe": 2429,
      "yek": 2430,
      "zor": 2431,
      "هر": 2432,
      "ıngıl": 2433,
      "ıslərı": 2434,
      "mələrı": 2435,
      "dıvar": 2436,
      "onda": 2437,
      "azərbaycandan": 2438,
      "mugan": 2439,
      "mık": 2440,
      "mıq": 2441,
      "ızə": 2442,
      "əhalı": 2443,
      "2020": 2444,
      "nəq": 2445,
      "tarıxcısı": 2446,
      "sərkər": 2447,
      "ıcər": 2448,
      "əsasını": 2449,
      "boyun": 2450,
      "onlardan": 2451,
      "kecırılən": 2452,
      "konullu": 2453,
      "tapsır": 2454,
      "tapılmısdır": 2455,
      "mustəqıllıyını": 2456,
      "cəlb": 2457,
      "qosunları": 2458,
      "maraga": 2459,
      "deportasıya": 2460,
      "prezıdentı": 2461,
      "pozıs": 2462,
      "atropatena": 2463,
      "mohkəm": 2464,
      "kecıdlər": 2465,
      "demokratık": 2466,
      "sərkərdə": 2467,
      "34": 2468,
      "bılə": 2469,
      "ga": 2470,
      "gedən": 2471,
      "le": 2472,
      "mak": 2473,
      "nal": 2474,
      "pal": 2475,
      "pet": 2476,
      "qəm": 2477,
      "rut": 2478,
      "tey": 2479,
      "yen": 2480,
      "ев": 2481,
      "ин": 2482,
      "كه": 2483,
      "ıslı": 2484,
      "ısınə": 2485,
      "məy": 2486,
      "aydın": 2487,
      "ətının": 2488,
      "səv": 2489,
      "adları": 2490,
      "təsıs": 2491,
      "xanlıgının": 2492,
      "lıyınə": 2493,
      "ıdey": 2494,
      "186": 2495,
      "avet": 2496,
      "yanında": 2497,
      "isf": 2498,
      "dırılır": 2499,
      "dırıldı": 2500,
      "səhərın": 2501,
      "ruh": 2502,
      "həqıq": 2503,
      "rayonun": 2504,
      "əlaqə": 2505,
      "mədənıyyətının": 2506,
      "bırləsdır": 2507,
      "yurusu": 2508,
      "sunas": 2509,
      "baslayaraq": 2510,
      "sosıalıst": 2511,
      "ıslahat": 2512,
      "etıbarən": 2513,
      "mugam": 2514,
      "55": 2515,
      "co": 2516,
      "jan": 2517,
      "kap": 2518,
      "obr": 2519,
      "sum": 2520,
      "taxt": 2521,
      "yet": 2522,
      "да": 2523,
      "با": 2524,
      "aran": 2525,
      "dək": 2526,
      "orada": 2527,
      "dılınə": 2528,
      "edılmısdı": 2529,
      "təsad": 2530,
      "məscıd": 2531,
      "komək": 2532,
      "ıcaz": 2533,
      "xalqlarının": 2534,
      "qafqazın": 2535,
      "gəlın": 2536,
      "gəlır": 2537,
      "vılayətı": 2538,
      "verılmısdır": 2539,
      "saır": 2540,
      "uluq": 2541,
      "qoyun": 2542,
      "qayıt": 2543,
      "muqavı": 2544,
      "qərara": 2545,
      "ıstıqamət": 2546,
      "rast": 2547,
      "каз": 2548,
      "yelız": 2549,
      "1905": 2550,
      "korp": 2551,
      "cumhurıyyətının": 2552,
      "hınd": 2553,
      "dərəcə": 2554,
      "moskva": 2555,
      "təhlukəs": 2556,
      "bataly": 2557,
      "oynay": 2558,
      "qaynaq": 2559,
      "unıver": 2560,
      "yelızavet": 2561,
      "95": 2562,
      "cayı": 2563,
      "fıyyət": 2564,
      "hab": 2565,
      "hek": 2566,
      "ker": 2567,
      "mes": 2568,
      "magı": 2569,
      "nu": 2570,
      "xəs": 2571,
      "xos": 2572,
      "но": 2573,
      "ırov": 2574,
      "mısdılar": 2575,
      "sıf": 2576,
      "dənın": 2577,
      "adına": 2578,
      "axc": 2579,
      "verır": 2580,
      "ıde": 2581,
      "əsrə": 2582,
      "ozu": 2583,
      "ozunu": 2584,
      "kecdı": 2585,
      "gorun": 2586,
      "ell": 2587,
      "alım": 2588,
      "kəndlı": 2589,
      "bərab": 2590,
      "əsaslan": 2591,
      "dusər": 2592,
      "kecırmək": 2593,
      "zəıf": 2594,
      "gəldı": 2595,
      "lamaq": 2596,
      "verılır": 2597,
      "xususən": 2598,
      "albanıyası": 2599,
      "rəsm": 2600,
      "kəmərlər": 2601,
      "gulustan": 2602,
      "tədbır": 2603,
      "cəmı": 2604,
      "etıraz": 2605,
      "kəllə": 2606,
      "yunan": 2607,
      "hərəkatının": 2608,
      "sıstemı": 2609,
      "poe": 2610,
      "maddı": 2611,
      "cumhurıyyətı": 2612,
      "cəlalılər": 2613,
      "terrorcu": 2614,
      "parlament": 2615,
      "həmədan": 2616,
      "dəyısıklık": 2617,
      "ugrunda": 2618,
      "istıqlal": 2619,
      "borkıyar": 2620,
      "teymur": 2621,
      "təhlukəsız": 2622,
      "90": 2623,
      "dor": 2624,
      "ka": 2625,
      "km": 2626,
      "nəh": 2627,
      "sadı": 2628,
      "tal": 2629,
      "ulı": 2630,
      "xoc": 2631,
      "yaq": 2632,
      "zm": 2633,
      "əbu": 2634,
      "аз": 2635,
      "مل": 2636,
      "arası": 2637,
      "ıyalar": 2638,
      "dılmıs": 2639,
      "səx": 2640,
      "sıə": 2641,
      "agac": 2642,
      "tıp": 2643,
      "butov": 2644,
      "lək": 2645,
      "oyna": 2646,
      "edılıb": 2647,
      "qardası": 2648,
      "sahə": 2649,
      "sonun": 2650,
      "ruslar": 2651,
      "dovlətın": 2652,
      "bəyov": 2653,
      "əsasnamə": 2654,
      "bolgən": 2655,
      "qarabagda": 2656,
      "ermənıstandan": 2657,
      "surası": 2658,
      "dunyanın": 2659,
      "sərqdə": 2660,
      "qərarı": 2661,
      "rəsul": 2662,
      "saylı": 2663,
      "əlaqələn": 2664,
      "rəhbərlık": 2665,
      "sədrı": 2666,
      "dekabrın": 2667,
      "nazırı": 2668,
      "yeger": 2669,
      "sısıanovun": 2670,
      "skının": 2671,
      "bakıya": 2672,
      "nəzərə": 2673,
      "qızılbas": 2674,
      "qəbırdən": 2675,
      "vəzıfə": 2676,
      "اذربيجان": 2677,
      "bəhs": 2678,
      "urmıya": 2679,
      "qurultayı": 2680,
      "səvıyy": 2681,
      "yelızavetpol": 2682,
      "bərabər": 2683,
      "ber": 2684,
      "ch": 2685,
      "der": 2686,
      "elı": 2687,
      "frak": 2688,
      "ilıs": 2689,
      "kras": 2690,
      "nus": 2691,
      "nam": 2692,
      "pır": 2693,
      "va": 2694,
      "вказ": 2695,
      "ич": 2696,
      "اه": 2697,
      "كر": 2698,
      "هم": 2699,
      "aras": 2700,
      "ılkın": 2701,
      "dəqıq": 2702,
      "aldı": 2703,
      "vət": 2704,
      "1919": 2705,
      "bascılıq": 2706,
      "məsgul": 2707,
      "vergı": 2708,
      "yarısında": 2709,
      "ıqlı": 2710,
      "2000": 2711,
      "kəb": 2712,
      "elem": 2713,
      "dırılmısdır": 2714,
      "bərdə": 2715,
      "1994": 2716,
      "gəlməsı": 2717,
      "ermənılərı": 2718,
      "yaradıldı": 2719,
      "təsvırı": 2720,
      "topon": 2721,
      "dıqqət": 2722,
      "cavan": 2723,
      "zaqat": 2724,
      "xacın": 2725,
      "ınkısafı": 2726,
      "inqılab": 2727,
      "кавказ": 2728,
      "uzərındəkı": 2729,
      "abbasın": 2730,
      "cevrıl": 2731,
      "fərqlən": 2732,
      "aıləsı": 2733,
      "zulf": 2734,
      "qonsu": 2735,
      "lıları": 2736,
      "tamamılə": 2737,
      "yaralanır": 2738,
      "olkənın": 2739,
      "ıngılıs": 2740,
      "təsaduf": 2741,
      "unıversıt": 2742,
      "xocalı": 2743,
      "bəl": 2744,
      "fəl": 2745,
      "har": 2746,
      "hac": 2747,
      "jur": 2748,
      "kab": 2749,
      "sub": 2750,
      "val": 2751,
      "xır": 2752,
      "xoz": 2753,
      "xii": 2754,
      "zab": 2755,
      "əgər": 2756,
      "وه": 2757,
      "ısına": 2758,
      "ayıl": 2759,
      "əng": 2760,
      "ulduz": 2761,
      "dılır": 2762,
      "ıyyatı": 2763,
      "osek": 2764,
      "ladı": 2765,
      "təsırı": 2766,
      "akad": 2767,
      "ıdar": 2768,
      "əsrdən": 2769,
      "turbəsı": 2770,
      "rusıyaya": 2771,
      "ıcl": 2772,
      "yazır": 2773,
      "bəyı": 2774,
      "xalc": 2775,
      "ədəd": 2776,
      "mərhələ": 2777,
      "fəz": 2778,
      "lənkər": 2779,
      "təqvı": 2780,
      "maları": 2781,
      "arasındakı": 2782,
      "saat": 2783,
      "uzərı": 2784,
      "yerləsır": 2785,
      "qayda": 2786,
      "alınmıs": 2787,
      "dıqdan": 2788,
      "2008": 2789,
      "xarıc": 2790,
      "ıbarətdır": 2791,
      "muharıbəsındə": 2792,
      "yayıl": 2793,
      "ədəbıyyatının": 2794,
      "duzəl": 2795,
      "seır": 2796,
      "məsələsı": 2797,
      "katıbı": 2798,
      "surətdə": 2799,
      "ləsdırılıb": 2800,
      "fıqur": 2801,
      "fuzulı": 2802,
      "nəsımı": 2803,
      "gədəbəy": 2804,
      "oglunun": 2805,
      "cevır": 2806,
      "азер": 2807,
      "ilısu": 2808,
      "təqvımı": 2809,
      "100": 2810,
      "44": 2811,
      "aı": 2812,
      "cap": 2813,
      "fr": 2814,
      "həsr": 2815,
      "hum": 2816,
      "hədə": 2817,
      "hom": 2818,
      "kazım": 2819,
      "kevıc": 2820,
      "mırdı": 2821,
      "pat": 2822,
      "əx": 2823,
      "ма": 2824,
      "عل": 2825,
      "undan": 2826,
      "altı": 2827,
      "aləm": 2828,
      "vəlı": 2829,
      "ıyab": 2830,
      "usul": 2831,
      "dırdı": 2832,
      "ındəkı": 2833,
      "abdul": 2834,
      "1915": 2835,
      "musah": 2836,
      "ost": 2837,
      "qadag": 2838,
      "lacın": 2839,
      "təslım": 2840,
      "ıyyətlə": 2841,
      "est": 2842,
      "sahılındə": 2843,
      "yardım": 2844,
      "əyan": 2845,
      "dovrlərdə": 2846,
      "ərazılərı": 2847,
      "yanına": 2848,
      "qaldı": 2849,
      "xalqının": 2850,
      "qafqaza": 2851,
      "الى": 2852,
      "158": 2853,
      "gəncən": 2854,
      "nəfərdən": 2855,
      "rej": 2856,
      "ərazısınə": 2857,
      "səklındə": 2858,
      "stat": 2859,
      "kecırıldı": 2860,
      "yaradılır": 2861,
      "yaxınlas": 2862,
      "ısgalı": 2863,
      "huru": 2864,
      "xəz": 2865,
      "məclıs": 2866,
      "mənbələrdə": 2867,
      "cınayət": 2868,
      "fərqlı": 2869,
      "qrıq": 2870,
      "rəng": 2871,
      "mustafa": 2872,
      "arxıvləsdırılıb": 2873,
      "cəhd": 2874,
      "padsah": 2875,
      "истор": 2876,
      "isgəndər": 2877,
      "problem": 2878,
      "krasov": 2879,
      "homosek": 2880,
      "36": 2881,
      "carı": 2882,
      "cahan": 2883,
      "gələ": 2884,
      "jın": 2885,
      "nun": 2886,
      "pıyada": 2887,
      "ret": 2888,
      "sının": 2889,
      "sıya": 2890,
      "təl": 2891,
      "tərə": 2892,
      "xur": 2893,
      "yad": 2894,
      "yed": 2895,
      "жан": 2896,
      "ام": 2897,
      "ıları": 2898,
      "astr": 2899,
      "məıs": 2900,
      "mədı": 2901,
      "əsy": 2902,
      "dıyar": 2903,
      "dıalek": 2904,
      "almaq": 2905,
      "ıyasını": 2906,
      "olmayan": 2907,
      "mıslar": 2908,
      "1912": 2909,
      "agının": 2910,
      "mıtın": 2911,
      "tanbul": 2912,
      "cəfər": 2913,
      "qaraq": 2914,
      "uzaq": 2915,
      "manın": 2916,
      "verməsı": 2917,
      "verırdı": 2918,
      "məkdə": 2919,
      "sərdar": 2920,
      "yerlərdə": 2921,
      "istıfadə": 2922,
      "istanbul": 2923,
      "coxu": 2924,
      "bolgu": 2925,
      "baglan": 2926,
      "yaxud": 2927,
      "verıldı": 2928,
      "kocurulmə": 2929,
      "arsak": 2930,
      "acıb": 2931,
      "kompozıs": 2932,
      "rasıya": 2933,
      "genıslən": 2934,
      "pasanın": 2935,
      "tamas": 2936,
      "komıtə": 2937,
      "cəmıyyət": 2938,
      "sakını": 2939,
      "sıyasətı": 2940,
      "sımvolu": 2941,
      "aprelın": 2942,
      "təsərrufatı": 2943,
      "sənətkar": 2944,
      "ıntılar": 2945,
      "ındıkı": 2946,
      "molla": 2947,
      "eramızdan": 2948,
      "subut": 2949,
      "иджан": 2950,
      "dərvıs": 2951,
      "boyunca": 2952,
      "isfahan": 2953,
      "obraz": 2954,
      "muqavımət": 2955,
      "zaqatala": 2956,
      "32": 2957,
      "bah": 2958,
      "cusu": 2959,
      "edıy": 2960,
      "fakt": 2961,
      "hıc": 2962,
      "kos": 2963,
      "lazım": 2964,
      "noq": 2965,
      "pey": 2966,
      "qılın": 2967,
      "rov": 2968,
      "rub": 2969,
      "səs": 2970,
      "sət": 2971,
      "sol": 2972,
      "xa": 2973,
      "ات": 2974,
      "مع": 2975,
      "ard": 2976,
      "arkən": 2977,
      "ıləs": 2978,
      "məmur": 2979,
      "ayının": 2980,
      "ondan": 2981,
      "mısı": 2982,
      "təmız": 2983,
      "mukəllə": 2984,
      "1913": 2985,
      "1916": 2986,
      "ahat": 2987,
      "bəhr": 2988,
      "ləy": 2989,
      "ləmə": 2990,
      "dular": 2991,
      "cəy": 2992,
      "qap": 2993,
      "lav": 2994,
      "xanov": 2995,
      "ozunə": 2996,
      "əyı": 2997,
      "yerə": 2998,
      "lıqla": 2999,
      "alarını": 3000,
      "qalanın": 3001,
      "qalasının": 3002,
      "dırılmıs": 3003,
      "mərhəl": 3004,
      "yasam": 3005,
      "xalqları": 3006,
      "mılyon": 3007,
      "olduq": 3008,
      "1998": 3009,
      "əvvəlcə": 3010,
      "qeydıyyat": 3011,
      "məhz": 3012,
      "əkkəb": 3013,
      "str": 3014,
      "rayonlar": 3015,
      "doyuscu": 3016,
      "murəkkəb": 3017,
      "quruc": 3018,
      "gəncəyə": 3019,
      "hıssəsını": 3020,
      "mustəqıllık": 3021,
      "olkədə": 3022,
      "motıv": 3023,
      "yola": 3024,
      "mahmud": 3025,
      "kıtabı": 3026,
      "partıyasının": 3027,
      "ordunun": 3028,
      "ordubad": 3029,
      "ərazılərdə": 3030,
      "yuksəl": 3031,
      "yoxdur": 3032,
      "sıyahıya": 3033,
      "əbdul": 3034,
      "dıklərı": 3035,
      "muəllıfı": 3036,
      "oqrafık": 3037,
      "баиджан": 3038,
      "qıymət": 3039,
      "konstıtusıya": 3040,
      "cama": 3041,
      "cografı": 3042,
      "qutu": 3043,
      "ittıfaqı": 3044,
      "icra": 3045,
      "sırvansahlar": 3046,
      "yasadıgı": 3047,
      "turkməncay": 3048,
      "ləzgı": 3049,
      "movzu": 3050,
      "yarım": 3051,
      "terrorcuları": 3052,
      "borkıyaruq": 3053,
      "element": 3054,
      "lənkəran": 3055,
      "азербаиджан": 3056,
      "musahıdə": 3057,
      "48": 3058,
      "bələ": 3059,
      "bətı": 3060,
      "ddın": 3061,
      "guz": 3062,
      "ler": 3063,
      "lul": 3064,
      "nek": 3065,
      "oh": 3066,
      "qələ": 3067,
      "qasım": 3068,
      "rıb": 3069,
      "rolun": 3070,
      "ralar": 3071,
      "tag": 3072,
      "vım": 3073,
      "xadı": 3074,
      "ал": 3075,
      "ية": 3076,
      "ınsı": 3077,
      "anlay": 3078,
      "ılıy": 3079,
      "dəlı": 3080,
      "ətə": 3081,
      "bəd": 3082,
      "mıf": 3083,
      "basına": 3084,
      "ızı": 3085,
      "vermısdır": 3086,
      "sonralar": 3087,
      "tərıq": 3088,
      "iraq": 3089,
      "alara": 3090,
      "sonradan": 3091,
      "bəylı": 3092,
      "lıların": 3093,
      "təqvım": 3094,
      "səfı": 3095,
      "movq": 3096,
      "heyətı": 3097,
      "ərazısındəkı": 3098,
      "ımperıyası": 3099,
      "baslamısdır": 3100,
      "gondərdı": 3101,
      "təhsıl": 3102,
      "fəalıyyətı": 3103,
      "məlumatlar": 3104,
      "ədəbıyyatında": 3105,
      "batum": 3106,
      "baba": 3107,
      "huququ": 3108,
      "bayraq": 3109,
      "usyanı": 3110,
      "baslayır": 3111,
      "qurultayının": 3112,
      "metal": 3113,
      "kolxoz": 3114,
      "xorasan": 3115,
      "vahıd": 3116,
      "bərpa": 3117,
      "texn": 3118,
      "sımvolık": 3119,
      "munaqıs": 3120,
      "jurnal": 3121,
      "qadagan": 3122,
      "homoseksual": 3123,
      "mukəlləfıyyət": 3124,
      "nekrop": 3125,
      "02": 3126,
      "46": 3127,
      "fed": 3128,
      "hım": 3129,
      "həndə": 3130,
      "kk": 3131,
      "kaz": 3132,
      "klas": 3133,
      "qən": 3134,
      "ram": 3135,
      "ruz": 3136,
      "sıs": 3137,
      "ser": 3138,
      "toy": 3139,
      "vın": 3140,
      "viii": 3141,
      "vacıb": 3142,
      "xas": 3143,
      "yolu": 3144,
      "ıtan": 3145,
      "əkın": 3146,
      "ку": 3147,
      "قل": 3148,
      "وج": 3149,
      "asırə": 3150,
      "astar": 3151,
      "əsası": 3152,
      "alıst": 3153,
      "əndı": 3154,
      "olk": 3155,
      "ovıc": 3156,
      "atabəy": 3157,
      "mıslər": 3158,
      "mısdılər": 3159,
      "arıf": 3160,
      "bucaq": 3161,
      "duyu": 3162,
      "cəhət": 3163,
      "məklə": 3164,
      "sonunda": 3165,
      "ozunun": 3166,
      "madı": 3167,
      "yarısı": 3168,
      "rusların": 3169,
      "ıca": 3170,
      "ucuncu": 3171,
      "alarına": 3172,
      "suvar": 3173,
      "bərı": 3174,
      "muhasırə": 3175,
      "fəal": 3176,
      "ıtır": 3177,
      "sırın": 3178,
      "bulaq": 3179,
      "masın": 3180,
      "gostərən": 3181,
      "gostərmək": 3182,
      "mətbu": 3183,
      "gumus": 3184,
      "darma": 3185,
      "verılən": 3186,
      "xususıyyət": 3187,
      "kecırılır": 3188,
      "prınsı": 3189,
      "səhıd": 3190,
      "alınması": 3191,
      "heykəl": 3192,
      "ımperator": 3193,
      "məlumata": 3194,
      "paskevıc": 3195,
      "hakımıyyətının": 3196,
      "yaranması": 3197,
      "qrupu": 3198,
      "cıddı": 3199,
      "qadınlar": 3200,
      "tayfaları": 3201,
      "ستان": 3202,
      "vasıtə": 3203,
      "paytaxt": 3204,
      "geyım": 3205,
      "bızım": 3206,
      "mınıatur": 3207,
      "etdıklərı": 3208,
      "mənsəlı": 3209,
      "feder": 3210,
      "həndəsı": 3211,
      "110": 3212,
      "37": 3213,
      "300": 3214,
      "978": 3215,
      "bt": 3216,
      "ben": 3217,
      "bel": 3218,
      "cəs": 3219,
      "həv": 3220,
      "nah": 3221,
      "nəv": 3222,
      "pres": 3223,
      "stan": 3224,
      "sadə": 3225,
      "saya": 3226,
      "ıp": 3227,
      "ко": 3228,
      "сс": 3229,
      "وس": 3230,
      "anda": 3231,
      "arq": 3232,
      "ıllı": 3233,
      "ıslən": 3234,
      "dad": 3235,
      "alının": 3236,
      "alətı": 3237,
      "dırır": 3238,
      "azərbaycanlıları": 3239,
      "etının": 3240,
      "agdam": 3241,
      "əmla": 3242,
      "əmrı": 3243,
      "bədən": 3244,
      "bəzən": 3245,
      "baslı": 3246,
      "bascılıgı": 3247,
      "qarıs": 3248,
      "əhər": 3249,
      "evı": 3250,
      "koh": 3251,
      "aktı": 3252,
      "tarıxsunas": 3253,
      "yazıc": 3254,
      "kəndının": 3255,
      "burc": 3256,
      "oldugun": 3257,
      "maqla": 3258,
      "surasının": 3259,
      "dovrunə": 3260,
      "dəstək": 3261,
      "həkk": 3262,
      "zərdus": 3263,
      "kısılər": 3264,
      "topal": 3265,
      "dıqları": 3266,
      "2001": 3267,
      "ımperı": 3268,
      "kəmərın": 3269,
      "yulı": 3270,
      "səbəbı": 3271,
      "halda": 3272,
      "tuf": 3273,
      "səlah": 3274,
      "abbasqulu": 3275,
      "ənənə": 3276,
      "ımzalanması": 3277,
      "numunələrı": 3278,
      "meydana": 3279,
      "арм": 3280,
      "umumıyyətlə": 3281,
      "tədqıqatcılar": 3282,
      "xuda": 3283,
      "dəfn": 3284,
      "baxımından": 3285,
      "seckılər": 3286,
      "ıcərısındə": 3287,
      "ıcazə": 3288,
      "gəncənın": 3289,
      "qrıqor": 3290,
      "01": 3291,
      "42": 3292,
      "45": 3293,
      "63": 3294,
      "bəs": 3295,
      "gus": 3296,
      "hov": 3297,
      "ik": 3298,
      "kdən": 3299,
      "lop": 3300,
      "qırı": 3301,
      "rey": 3302,
      "salı": 3303,
      "sasan": 3304,
      "teh": 3305,
      "əda": 3306,
      "əbul": 3307,
      "из": 3308,
      "те": 3309,
      "بل": 3310,
      "ınte": 3311,
      "dəl": 3312,
      "mələr": 3313,
      "ayında": 3314,
      "ıyunun": 3315,
      "əlver": 3316,
      "ulmus": 3317,
      "1914": 3318,
      "agqoyun": 3319,
      "bəlı": 3320,
      "mızı": 3321,
      "mustəm": 3322,
      "bascısı": 3323,
      "qarnız": 3324,
      "xankəndı": 3325,
      "madan": 3326,
      "tarıxcı": 3327,
      "yerdə": 3328,
      "qazı": 3329,
      "dıyev": 3330,
      "oxu": 3331,
      "ədəbı": 3332,
      "gərgın": 3333,
      "الم": 3334,
      "1996": 3335,
      "eləcə": 3336,
      "cıxır": 3337,
      "cıxdı": 3338,
      "daxılındə": 3339,
      "bunlardan": 3340,
      "ıfa": 3341,
      "salmas": 3342,
      "2007": 3343,
      "aparılan": 3344,
      "dekret": 3345,
      "1945": 3346,
      "tutur": 3347,
      "1923": 3348,
      "bırləsdırılməsı": 3349,
      "1936": 3350,
      "partla": 3351,
      "qanunver": 3352,
      "yanvarın": 3353,
      "ımzal": 3354,
      "1970": 3355,
      "asagıdakı": 3356,
      "uzvu": 3357,
      "sulaləsının": 3358,
      "komandanı": 3359,
      "roma": 3360,
      "vənd": 3361,
      "nagıl": 3362,
      "muhasırəyə": 3363,
      "həbs": 3364,
      "ehtıya": 3365,
      "monastır": 3366,
      "ıncəsənət": 3367,
      "maraqlı": 3368,
      "kılsəsı": 3369,
      "xəstə": 3370,
      "bolgənın": 3371,
      "hıcrı": 3372,
      "qılınc": 3373,
      "icraıyyə": 3374,
      "klassık": 3375,
      "agqoyunlu": 3376,
      "08": 3377,
      "41": 3378,
      "adır": 3379,
      "bos": 3380,
      "beh": 3381,
      "cır": 3382,
      "kad": 3383,
      "mınə": 3384,
      "por": 3385,
      "pap": 3386,
      "sm": 3387,
      "vaz": 3388,
      "vəsı": 3389,
      "vii": 3390,
      "xıyab": 3391,
      "yev": 3392,
      "zık": 3393,
      "ıtı": 3394,
      "əmən": 3395,
      "əcək": 3396,
      "ни": 3397,
      "ده": 3398,
      "يم": 3399,
      "یر": 3400,
      "ərmən": 3401,
      "ısındən": 3402,
      "asıy": 3403,
      "asıyası": 3404,
      "məmıs": 3405,
      "ayın": 3406,
      "dak": 3407,
      "azər": 3408,
      "vəh": 3409,
      "kız": 3410,
      "cıxan": 3411,
      "ata": 3412,
      "azərbaycanca": 3413,
      "mukaf": 3414,
      "1930": 3415,
      "arıq": 3416,
      "bək": 3417,
      "adının": 3418,
      "tanr": 3419,
      "luyu": 3420,
      "qalıb": 3421,
      "edıldıyı": 3422,
      "basar": 3423,
      "lıklərı": 3424,
      "sahəsındə": 3425,
      "mac": 3426,
      "sərh": 3427,
      "kecən": 3428,
      "gorul": 3429,
      "dovlətınə": 3430,
      "dovlətlərın": 3431,
      "yazmısdır": 3432,
      "ılaraq": 3433,
      "bəyə": 3434,
      "dırılırdı": 3435,
      "kəndlərı": 3436,
      "dusdu": 3437,
      "səhərınə": 3438,
      "rest": 3439,
      "coxlu": 3440,
      "الا": 3441,
      "gostərılə": 3442,
      "respublıkanın": 3443,
      "ehtı": 3444,
      "dəstəs": 3445,
      "məhv": 3446,
      "saırı": 3447,
      "səfəvılərın": 3448,
      "doyusu": 3449,
      "kecırılmıs": 3450,
      "vəzıyyətı": 3451,
      "zəncan": 3452,
      "materı": 3453,
      "seymının": 3454,
      "tutması": 3455,
      "qaytar": 3456,
      "nadırın": 3457,
      "musəlmanlar": 3458,
      "qəza": 3459,
      "sayda": 3460,
      "numayıs": 3461,
      "kəskın": 3462,
      "1947": 3463,
      "baglıdır": 3464,
      "basladılar": 3465,
      "əfsan": 3466,
      "ədəbıyyatı": 3467,
      "cayının": 3468,
      "ingıl": 3469,
      "hakımıyyətə": 3470,
      "yarandı": 3471,
      "skıf": 3472,
      "səltən": 3473,
      "mulkə": 3474,
      "1906": 3475,
      "partıya": 3476,
      "ıstırakı": 3477,
      "məlıdır": 3478,
      "bakının": 3479,
      "yaratdı": 3480,
      "huseynqulu": 3481,
      "olunmusdu": 3482,
      "donan": 3483,
      "sənəddə": 3484,
      "soyqırı": 3485,
      "deyılırdı": 3486,
      "təblıg": 3487,
      "yonəl": 3488,
      "almanıya": 3489,
      "hokumətının": 3490,
      "hazırlanmıs": 3491,
      "ınqılabı": 3492,
      "polkov": 3493,
      "ehtıy": 3494,
      "hucuma": 3495,
      "əksərıyyətı": 3496,
      "səlcuqlu": 3497,
      "orıjın": 3498,
      "hekay": 3499,
      "poez": 3500,
      "sonuncu": 3501,
      "xırda": 3502,
      "rejım": 3503,
      "gələcək": 3504,
      "yeddı": 3505,
      "rolunu": 3506,
      "səlahıyyət": 3507,
      "əlverıslı": 3508,
      "mustəmlə": 3509,
      "soyqırımı": 3510,
      "52": 3511,
      "57": 3512,
      "96": 3513,
      "con": 3514,
      "cag": 3515,
      "do": 3516,
      "fayət": 3517,
      "rəv": 3518,
      "sen": 3519,
      "saf": 3520,
      "taq": 3521,
      "ten": 3522,
      "xon": 3523,
      "ıcı": 3524,
      "مال": 3525,
      "گر": 3526,
      "ین": 3527,
      "ərzaq": 3528,
      "məyən": 3529,
      "daq": 3530,
      "əslındə": 3531,
      "azer": 3532,
      "vəl": 3533,
      "kıfayət": 3534,
      "onəm": 3535,
      "oncə": 3536,
      "əlındə": 3537,
      "aqrar": 3538,
      "bırınə": 3539,
      "mıx": 3540,
      "baslam": 3541,
      "lanmıs": 3542,
      "lıyyə": 3543,
      "verg": 3544,
      "sahzadə": 3545,
      "məktəbı": 3546,
      "sonlarında": 3547,
      "mada": 3548,
      "2010": 3549,
      "tarıxının": 3550,
      "avar": 3551,
      "dıyyə": 3552,
      "alarda": 3553,
      "muhaf": 3554,
      "burq": 3555,
      "atıon": 3556,
      "kecırır": 3557,
      "gostərılır": 3558,
      "əvvəlındə": 3559,
      "bunlar": 3560,
      "əsərlərındə": 3561,
      "zərur": 3562,
      "doyusdə": 3563,
      "naxcıvana": 3564,
      "arxa": 3565,
      "ıstık": 3566,
      "dekor": 3567,
      "qacarın": 3568,
      "mustəqıllıyının": 3569,
      "secıldı": 3570,
      "muharıbənın": 3571,
      "olmusdu": 3572,
      "mulkı": 3573,
      "cəkılmısdır": 3574,
      "koroglunun": 3575,
      "ərazılərındə": 3576,
      "qrupa": 3577,
      "sərhədlərı": 3578,
      "скии": 3579,
      "sıkayət": 3580,
      "səxsıyyət": 3581,
      "hadısələr": 3582,
      "borc": 3583,
      "1804": 3584,
      "katıb": 3585,
      "vurus": 3586,
      "vurgul": 3587,
      "komandanlıgı": 3588,
      "əlıyevın": 3589,
      "məqsədı": 3590,
      "abser": 3591,
      "ugurlu": 3592,
      "sənaye": 3593,
      "tatar": 3594,
      "imperıyası": 3595,
      "nətıcədə": 3596,
      "latın": 3597,
      "tele": 3598,
      "yetıs": 3599,
      "sadıq": 3600,
      "yaqub": 3601,
      "mıtınq": 3602,
      "hımay": 3603,
      "mətbuat": 3604,
      "prınsıp": 3605,
      "baslıca": 3606,
      "ınteq": 3607,
      "ehtımal": 3608,
      "mulkədar": 3609,
      "orıjınal": 3610,
      "mustəmləkə": 3611,
      "bus": 3612,
      "bey": 3613,
      "cor": 3614,
      "gəm": 3615,
      "gunun": 3616,
      "idar": 3617,
      "kes": 3618,
      "ner": 3619,
      "nuf": 3620,
      "pən": 3621,
      "rza": 3622,
      "stı": 3623,
      "tac": 3624,
      "vəs": 3625,
      "ıfə": 3626,
      "ла": 3627,
      "пер": 3628,
      "اح": 3629,
      "مان": 3630,
      "وان": 3631,
      "arətı": 3632,
      "ılas": 3633,
      "dədə": 3634,
      "ıstər": 3635,
      "lıman": 3636,
      "dıv": 3637,
      "azar": 3638,
      "almıs": 3639,
      "alılar": 3640,
      "vəkıl": 3641,
      "atlı": 3642,
      "dılını": 3643,
      "muav": 3644,
      "sıd": 3645,
      "1950": 3646,
      "mənaf": 3647,
      "qalıq": 3648,
      "qəbr": 3649,
      "ermənılərə": 3650,
      "ıyyətındə": 3651,
      "əhəmən": 3652,
      "lıya": 3653,
      "vermək": 3654,
      "əsrlərə": 3655,
      "2021": 3656,
      "1827": 3657,
      "avı": 3658,
      "yerındə": 3659,
      "dıyınə": 3660,
      "gorkəm": 3661,
      "dovlətlərı": 3662,
      "kılsə": 3663,
      "qaldır": 3664,
      "yazılı": 3665,
      "ıstıs": 3666,
      "xalqın": 3667,
      "xalqların": 3668,
      "bılməz": 3669,
      "azərbaycandakı": 3670,
      "artır": 3671,
      "respublıkada": 3672,
      "təqrıb": 3673,
      "dovrundən": 3674,
      "redak": 3675,
      "təskılatı": 3676,
      "irandan": 3677,
      "səkkız": 3678,
      "həyatı": 3679,
      "albanıya": 3680,
      "rusıyada": 3681,
      "layan": 3682,
      "seyıd": 3683,
      "yaradılmısdır": 3684,
      "konq": 3685,
      "torpaqları": 3686,
      "arsax": 3687,
      "ustu": 3688,
      "2006": 3689,
      "deyırlər": 3690,
      "aparan": 3691,
      "nızamı": 3692,
      "hokmran": 3693,
      "kompl": 3694,
      "muharıbəsının": 3695,
      "omr": 3696,
      "movcuddur": 3697,
      "novruz": 3698,
      "nıkol": 3699,
      "muqavılənın": 3700,
      "partıyası": 3701,
      "etmıslər": 3702,
      "ınsanların": 3703,
      "gurcustanın": 3704,
      "bakını": 3705,
      "etdırən": 3706,
      "abıdələrının": 3707,
      "baslandı": 3708,
      "yatır": 3709,
      "etməyı": 3710,
      "qırmızı": 3711,
      "ustunluk": 3712,
      "tutulması": 3713,
      "geor": 3714,
      "zadənın": 3715,
      "баку": 3716,
      "qıyam": 3717,
      "sənayes": 3718,
      "danısıqlar": 3719,
      "mulkıyyət": 3720,
      "kocurmə": 3721,
      "olumundən": 3722,
      "narahat": 3723,
      "ıstəyırdı": 3724,
      "monastırı": 3725,
      "əfqanıstan": 3726,
      "hındıstan": 3727,
      "batalyonu": 3728,
      "xarıcdən": 3729,
      "məısət": 3730,
      "movqe": 3731,
      "tehran": 3732,
      "ədalət": 3733,
      "materıal": 3734,
      "təqrıbən": 3735,
      "komplek": 3736,
      "51": 3737,
      "dıs": 3738,
      "gəlı": 3739,
      "hun": 3740,
      "jet": 3741,
      "kas": 3742,
      "lor": 3743,
      "py": 3744,
      "qas": 3745,
      "qraf": 3746,
      "saz": 3747,
      "tok": 3748,
      "tələ": 3749,
      "umı": 3750,
      "vad": 3751,
      "yəh": 3752,
      "zeyn": 3753,
      "им": 3754,
      "об": 3755,
      "ска": 3756,
      "که": 3757,
      "ınskı": 3758,
      "ıllık": 3759,
      "ırık": 3760,
      "ayır": 3761,
      "əss": 3762,
      "bəcər": 3763,
      "cumə": 3764,
      "endan": 3765,
      "edılməsını": 3766,
      "ımt": 3767,
      "ıyalı": 3768,
      "evlən": 3769,
      "kop": 3770,
      "maarıf": 3771,
      "əyalətı": 3772,
      "2014": 3773,
      "tarıxən": 3774,
      "dərhal": 3775,
      "dovrə": 3776,
      "gordu": 3777,
      "gundə": 3778,
      "qalmıs": 3779,
      "sumu": 3780,
      "sujet": 3781,
      "dusun": 3782,
      "dustan": 3783,
      "bakıxanov": 3784,
      "mayda": 3785,
      "xalqı": 3786,
      "qafqazdakı": 3787,
      "rud": 3788,
      "sovetlər": 3789,
      "qanunun": 3790,
      "xılaf": 3791,
      "cıları": 3792,
      "cıxmısdır": 3793,
      "karyag": 3794,
      "real": 3795,
      "dəst": 3796,
      "ərazısının": 3797,
      "movqey": 3798,
      "azərbaycanlılara": 3799,
      "138": 3800,
      "yerləsırdı": 3801,
      "zənd": 3802,
      "zənın": 3803,
      "hazırkı": 3804,
      "hazırla": 3805,
      "bolgəsındə": 3806,
      "1980": 3807,
      "parf": 3808,
      "toplan": 3809,
      "2005": 3810,
      "deyıldı": 3811,
      "hıssəsındə": 3812,
      "sırvanı": 3813,
      "qoru": 3814,
      "qorum": 3815,
      "nətıcələn": 3816,
      "numayəndəsı": 3817,
      "1922": 3818,
      "komendan": 3819,
      "rasıyası": 3820,
      "instı": 3821,
      "1937": 3822,
      "orden": 3823,
      "vılayətının": 3824,
      "cəkıldı": 3825,
      "planı": 3826,
      "avqustun": 3827,
      "muharıbələrı": 3828,
      "qətlə": 3829,
      "tayfa": 3830,
      "noyabrda": 3831,
      "guclən": 3832,
      "ustundə": 3833,
      "səxslər": 3834,
      "ologıya": 3835,
      "məglubıyyət": 3836,
      "qondarma": 3837,
      "bəzədıl": 3838,
      "vəng": 3839,
      "qacqın": 3840,
      "qarsılıqlı": 3841,
      "komıssar": 3842,
      "sufızm": 3843,
      "xatır": 3844,
      "xarakterık": 3845,
      "gızlı": 3846,
      "oyunlu": 3847,
      "təbəqə": 3848,
      "zərbə": 3849,
      "turkıyənın": 3850,
      "əlıfbası": 3851,
      "zıyarət": 3852,
      "razılas": 3853,
      "mınıllıyın": 3854,
      "habelə": 3855,
      "arasdır": 3856,
      "toponım": 3857,
      "kabın": 3858,
      "zabıt": 3859,
      "dıalekt": 3860,
      "kazak": 3861,
      "polkovnık": 3862,
      "onəmlı": 3863,
      "nufuz": 3864,
      "gorkəmlı": 3865,
      "redaktor": 3866,
      "zeynal": 3867,
      "53": 3868,
      "58": 3869,
      "97": 3870,
      "adıl": 3871,
      "bıc": 3872,
      "df": 3873,
      "ea": 3874,
      "fır": 3875,
      "fut": 3876,
      "hul": 3877,
      "ləm": 3878,
      "lok": 3879,
      "odə": 3880,
      "omat": 3881,
      "rıt": 3882,
      "sf": 3883,
      "udı": 3884,
      "vaq": 3885,
      "xah": 3886,
      "yunu": 3887,
      "ıx": 3888,
      "ве": 3889,
      "гра": 3890,
      "ет": 3891,
      "ест": 3892,
      "за": 3893,
      "се": 3894,
      "ти": 3895,
      "فت": 3896,
      "كث": 3897,
      "له": 3898,
      "وی": 3899,
      "ərlı": 3900,
      "arak": 3901,
      "ıllərı": 3902,
      "ılmasına": 3903,
      "dəh": 3904,
      "ısarə": 3905,
      "məl": 3906,
      "əsız": 3907,
      "dıpl": 3908,
      "ıyasından": 3909,
      "olsa": 3910,
      "etık": 3911,
      "agın": 3912,
      "amer": 3913,
      "bırbasa": 3914,
      "bırıncısı": 3915,
      "mənım": 3916,
      "bəxt": 3917,
      "musav": 3918,
      "ılərının": 3919,
      "cəf": 3920,
      "qardas": 3921,
      "məskən": 3922,
      "veren": 3923,
      "sahı": 3924,
      "2016": 3925,
      "2012": 3926,
      "nəbı": 3927,
      "dərkən": 3928,
      "dıyy": 3929,
      "turkc": 3930,
      "turklərı": 3931,
      "mıngə": 3932,
      "suvarı": 3933,
      "suveren": 3934,
      "səhərını": 3935,
      "səhərlərı": 3936,
      "dasıyan": 3937,
      "bura": 3938,
      "oldular": 3939,
      "maqda": 3940,
      "qarabaga": 3941,
      "rux": 3942,
      "gəlmısdır": 3943,
      "gostərılən": 3944,
      "əvvəllər": 3945,
      "lıgına": 3946,
      "darlıq": 3947,
      "reınteq": 3948,
      "lərək": 3949,
      "əsərının": 3950,
      "etməklə": 3951,
      "yaradılmıs": 3952,
      "irəvanın": 3953,
      "rəhım": 3954,
      "ayrıca": 3955,
      "1986": 3956,
      "tern": 3957,
      "qosul": 3958,
      "gəncədə": 3959,
      "1946": 3960,
      "nızam": 3961,
      "rəhbərlıyının": 3962,
      "əfəndı": 3963,
      "saxur": 3964,
      "təhması": 3965,
      "nətıcəsı": 3966,
      "mubah": 3967,
      "novu": 3968,
      "1938": 3969,
      "fılmı": 3970,
      "ınsanlar": 3971,
      "nəzərıyyə": 3972,
      "kəlbəcər": 3973,
      "sıkkə": 3974,
      "gətırıb": 3975,
      "dəstələrı": 3976,
      "balak": 3977,
      "ıqtısa": 3978,
      "eolıt": 3979,
      "1969": 3980,
      "mərkəzındə": 3981,
      "hıne": 3982,
      "ıstehsalı": 3983,
      "adlandırılan": 3984,
      "tezlıklə": 3985,
      "hucumu": 3986,
      "nısbət": 3987,
      "hormət": 3988,
      "qəsəb": 3989,
      "mohkəmlən": 3990,
      "peter": 3991,
      "keram": 3992,
      "nəhayət": 3993,
      "tıplı": 3994,
      "ıclasında": 3995,
      "noqtə": 3996,
      "qeydıyyata": 3997,
      "sadəcə": 3998,
      "əmlak": 3999,
      "kohnə": 4000,
      "zərdust": 4001,
      "sasanılər": 4002,
      "mukafat": 4003,
      "muhafızə": 4004,
      "dekoratıv": 4005,
      "əhəmənılər": 4006,
      "gəlıb": 4007,
      "mıngəcevır": 4008,
      "75": 4009,
      "84": 4010,
      "91": 4011,
      "bıs": 4012,
      "cılərın": 4013,
      "culuq": 4014,
      "fun": 4015,
      "gının": 4016,
      "gıc": 4017,
      "ix": 4018,
      "kp": 4019,
      "lo": 4020,
      "lov": 4021,
      "no": 4022,
      "naraz": 4023,
      "olıt": 4024,
      "port": 4025,
      "qası": 4026,
      "rıc": 4027,
      "sərəf": 4028,
      "sac": 4029,
      "toxun": 4030,
      "vi": 4031,
      "vas": 4032,
      "way": 4033,
      "xəlı": 4034,
      "zəm": 4035,
      "ıdır": 4036,
      "ие": 4037,
      "بح": 4038,
      "خل": 4039,
      "وق": 4040,
      "ınsa": 4041,
      "ırəl": 4042,
      "ıscı": 4043,
      "vəfat": 4044,
      "ənvər": 4045,
      "ıyla": 4046,
      "usunun": 4047,
      "ert": 4048,
      "dıllərındə": 4049,
      "etdıyını": 4050,
      "təbər": 4051,
      "səıd": 4052,
      "muv": 4053,
      "tıkın": 4054,
      "ləq": 4055,
      "ləmək": 4056,
      "musayı": 4057,
      "lugun": 4058,
      "cəbr": 4059,
      "edılə": 4060,
      "edılməsınə": 4061,
      "basqal": 4062,
      "radı": 4063,
      "ucmu": 4064,
      "uzan": 4065,
      "ıqlım": 4066,
      "sərab": 4067,
      "lətıfə": 4068,
      "elcı": 4069,
      "ələk": 4070,
      "utyun": 4071,
      "alıb": 4072,
      "kəndınə": 4073,
      "mayıb": 4074,
      "onunla": 4075,
      "zəbt": 4076,
      "gostərıc": 4077,
      "ortalarında": 4078,
      "hudud": 4079,
      "nəfərı": 4080,
      "ental": 4081,
      "cənubunda": 4082,
      "muharıbəyə": 4083,
      "ərazısındən": 4084,
      "numun": 4085,
      "stell": 4086,
      "salın": 4087,
      "təsvırlərı": 4088,
      "ordusunu": 4089,
      "bolgəyə": 4090,
      "proq": 4091,
      "torpaqlarında": 4092,
      "qəzetı": 4093,
      "ımperıyanın": 4094,
      "1941": 4095,
      "1949": 4096,
      "forması": 4097,
      "saxsı": 4098,
      "ısgalından": 4099,
      "mustəqıllıyı": 4100,
      "hesabat": 4101,
      "təbrızdə": 4102,
      "yaranmıs": 4103,
      "catdı": 4104,
      "ıstədı": 4105,
      "kıtabxan": 4106,
      "novbətı": 4107,
      "1907": 4108,
      "dəfələrlə": 4109,
      "nəzərıyy": 4110,
      "oktyabrın": 4111,
      "gurcustana": 4112,
      "dəyısdırıl": 4113,
      "baku": 4114,
      "yaratmısdır": 4115,
      "tıtul": 4116,
      "bılərdı": 4117,
      "noyabrın": 4118,
      "huquqı": 4119,
      "olundugu": 4120,
      "gecə": 4121,
      "tətıl": 4122,
      "məktubunda": 4123,
      "fılmlər": 4124,
      "mehman": 4125,
      "back": 4126,
      "teatrı": 4127,
      "скои": 4128,
      "yasadıqları": 4129,
      "prezıdentının": 4130,
      "rəmzı": 4131,
      "opera": 4132,
      "pəhləvan": 4133,
      "yenə": 4134,
      "zəıflə": 4135,
      "səxsı": 4136,
      "hurufıl": 4137,
      "cəyını": 4138,
      "quruculu": 4139,
      "xadım": 4140,
      "machıne": 4141,
      "ehtıyat": 4142,
      "dıplomat": 4143,
      "wayback": 4144,
      "ırəlılə": 4145,
      "43": 4146,
      "56": 4147,
      "72": 4148,
      "74": 4149,
      "98": 4150,
      "cərə": 4151,
      "cen": 4152,
      "des": 4153,
      "ejı": 4154,
      "gar": 4155,
      "gından": 4156,
      "ged": 4157,
      "gedıb": 4158,
      "hav": 4159,
      "ivan": 4160,
      "kov": 4161,
      "lısı": 4162,
      "mik": 4163,
      "nur": 4164,
      "rolu": 4165,
      "sınə": 4166,
      "sop": 4167,
      "vol": 4168,
      "vının": 4169,
      "vab": 4170,
      "xo": 4171,
      "yum": 4172,
      "ze": 4173,
      "ва": 4174,
      "их": 4175,
      "ло": 4176,
      "мо": 4177,
      "то": 4178,
      "اد": 4179,
      "خز": 4180,
      "سر": 4181,
      "مت": 4182,
      "مين": 4183,
      "يس": 4184,
      "andan": 4185,
      "arz": 4186,
      "ıran": 4187,
      "asət": 4188,
      "mətə": 4189,
      "uslu": 4190,
      "olmasını": 4191,
      "erın": 4192,
      "dırmək": 4193,
      "cıcək": 4194,
      "təfıq": 4195,
      "muəss": 4196,
      "amma": 4197,
      "eyır": 4198,
      "qarayev": 4199,
      "ıyyətını": 4200,
      "estıv": 4201,
      "vermə": 4202,
      "ozundə": 4203,
      "2013": 4204,
      "nəcəf": 4205,
      "tarıxcılər": 4206,
      "1829": 4207,
      "avt": 4208,
      "olunun": 4209,
      "ərazıyə": 4210,
      "ərazılərın": 4211,
      "dovlətlər": 4212,
      "qalmısdır": 4213,
      "afıq": 4214,
      "eksp": 4215,
      "mərasım": 4216,
      "ıtaət": 4217,
      "mayor": 4218,
      "onunda": 4219,
      "buros": 4220,
      "1997": 4221,
      "1999": 4222,
      "əvvəlı": 4223,
      "gostərıl": 4224,
      "lılara": 4225,
      "cıxması": 4226,
      "haqda": 4227,
      "əsərlər": 4228,
      "əsərını": 4229,
      "həmıs": 4230,
      "dınc": 4231,
      "sərqdən": 4232,
      "stalın": 4233,
      "edon": 4234,
      "barısıq": 4235,
      "doyusundə": 4236,
      "seyı": 4237,
      "ordusunda": 4238,
      "həyatında": 4239,
      "kurdustan": 4240,
      "qosunun": 4241,
      "2009": 4242,
      "aparılmıs": 4243,
      "bırıdır": 4244,
      "kəsf": 4245,
      "formalı": 4246,
      "rəhbərı": 4247,
      "təbrızə": 4248,
      "mahn": 4249,
      "olmuslar": 4250,
      "cəmıyyətı": 4251,
      "ərəblər": 4252,
      "bayramı": 4253,
      "daırəsındə": 4254,
      "tıtulu": 4255,
      "abıdələr": 4256,
      "rəqəm": 4257,
      "dənızının": 4258,
      "bınası": 4259,
      "dram": 4260,
      "qurultayın": 4261,
      "qoyulmusdur": 4262,
      "xrıstıanlıq": 4263,
      "xətt": 4264,
      "əhəmıyyətı": 4265,
      "1806": 4266,
      "məglubıyyətı": 4267,
      "məcburı": 4268,
      "aılənın": 4269,
      "surətlə": 4270,
      "lukdə": 4271,
      "naxıslar": 4272,
      "xoyskı": 4273,
      "prosesı": 4274,
      "balıq": 4275,
      "roman": 4276,
      "tıflısdə": 4277,
      "komıssarı": 4278,
      "regıonda": 4279,
      "mutləq": 4280,
      "muttəfıq": 4281,
      "حدود": 4282,
      "cəzalan": 4283,
      "baxımdan": 4284,
      "rəyasət": 4285,
      "layıhəsı": 4286,
      "nərımanov": 4287,
      "rayonunda": 4288,
      "kapıtan": 4289,
      "gəlınır": 4290,
      "dordun": 4291,
      "иче": 4292,
      "akadem": 4293,
      "xəzınə": 4294,
      "təltıf": 4295,
      "qaraqoyunlu": 4296,
      "camaat": 4297,
      "qələbə": 4298,
      "nekropolu": 4299,
      "astara": 4300,
      "nahıyə": 4301,
      "stansıy": 4302,
      "ımperıalıst": 4303,
      "армян": 4304,
      "partladılır": 4305,
      "qanunverıc": 4306,
      "abseron": 4307,
      "umıd": 4308,
      "hulak": 4309,
      "balakən": 4310,
      "nısbətən": 4311,
      "muvafıq": 4312,
      "basqaları": 4313,
      "ucmuəd": 4314,
      "03": 4315,
      "54": 4316,
      "62": 4317,
      "89": 4318,
      "alıyə": 4319,
      "be": 4320,
      "bolundu": 4321,
      "cab": 4322,
      "edərkən": 4323,
      "fərə": 4324,
      "ikı": 4325,
      "lek": 4326,
      "nıf": 4327,
      "pdf": 4328,
      "qıd": 4329,
      "qob": 4330,
      "rz": 4331,
      "tax": 4332,
      "uqar": 4333,
      "yıq": 4334,
      "zəmın": 4335,
      "де": 4336,
      "ру": 4337,
      "بال": 4338,
      "فا": 4339,
      "يز": 4340,
      "ıslərınə": 4341,
      "əsıllı": 4342,
      "alə": 4343,
      "urart": 4344,
      "dırlər": 4345,
      "dırmısdır": 4346,
      "canın": 4347,
      "etsə": 4348,
      "tıda": 4349,
      "bırlıyı": 4350,
      "məntəq": 4351,
      "mənəvı": 4352,
      "adından": 4353,
      "ena": 4354,
      "musa": 4355,
      "tanrı": 4356,
      "təsəb": 4357,
      "lanır": 4358,
      "lanması": 4359,
      "ıkıncısı": 4360,
      "əhalıyə": 4361,
      "vermıs": 4362,
      "verst": 4363,
      "mamıs": 4364,
      "malıyyə": 4365,
      "rustəm": 4366,
      "2011": 4367,
      "tarıxın": 4368,
      "1826": 4369,
      "dovrunun": 4370,
      "ərazının": 4371,
      "lıqda": 4372,
      "kecməsı": 4373,
      "kecərək": 4374,
      "oxsar": 4375,
      "tərəfı": 4376,
      "acagı": 4377,
      "turklərının": 4378,
      "yazılar": 4379,
      "yazılmısdır": 4380,
      "səhərlərdə": 4381,
      "dasın": 4382,
      "buraya": 4383,
      "mədrəs": 4384,
      "publıs": 4385,
      "gostərırdı": 4386,
      "mətn": 4387,
      "hamısı": 4388,
      "guman": 4389,
      "sənətı": 4390,
      "torə": 4391,
      "mırzənın": 4392,
      "həc": 4393,
      "cənubda": 4394,
      "məhdud": 4395,
      "strat": 4396,
      "uzərındən": 4397,
      "albanlar": 4398,
      "torpagı": 4399,
      "layır": 4400,
      "layev": 4401,
      "vəzır": 4402,
      "parıs": 4403,
      "qosunu": 4404,
      "rəhbərlərı": 4405,
      "gondərdıyı": 4406,
      "təhvıl": 4407,
      "tutan": 4408,
      "umumıl": 4409,
      "yaranan": 4410,
      "yayılmısdır": 4411,
      "catmısdır": 4412,
      "ədəbıyyatda": 4413,
      "dılındəkı": 4414,
      "yegan": 4415,
      "quvvələrın": 4416,
      "xron": 4417,
      "qarsısını": 4418,
      "cəkılmıs": 4419,
      "farsca": 4420,
      "bıldırır": 4421,
      "qısmən": 4422,
      "yaratmaq": 4423,
      "fəth": 4424,
      "abıdələrın": 4425,
      "ostana": 4426,
      "əməl": 4427,
      "dogma": 4428,
      "munasıbətlər": 4429,
      "balet": 4430,
      "ərzur": 4431,
      "dıkdən": 4432,
      "hadısələrı": 4433,
      "1979": 4434,
      "xəttat": 4435,
      "uzvlərı": 4436,
      "surətlı": 4437,
      "xeyr": 4438,
      "xeyır": 4439,
      "sulaləsı": 4440,
      "əzım": 4441,
      "mehdı": 4442,
      "naxıslı": 4443,
      "xacdasları": 4444,
      "qulluq": 4445,
      "daırələrı": 4446,
      "1736": 4447,
      "dunyada": 4448,
      "polkunun": 4449,
      "lınq": 4450,
      "antrop": 4451,
      "muxtarıyyət": 4452,
      "səraıtdə": 4453,
      "orqanları": 4454,
      "ского": 4455,
      "calısırdı": 4456,
      "deməkdır": 4457,
      "olmadı": 4458,
      "etnoqraf": 4459,
      "turkıyəyə": 4460,
      "pərəst": 4461,
      "bəylərbəy": 4462,
      "yolunda": 4463,
      "يرة": 4464,
      "konfrans": 4465,
      "ınsanın": 4466,
      "təzyıq": 4467,
      "nəqsı": 4468,
      "bıləcək": 4469,
      "dərəcədə": 4470,
      "dusərg": 4471,
      "tədbırlər": 4472,
      "rəsulzadə": 4473,
      "krasovskı": 4474,
      "tərıqət": 4475,
      "texnıkı": 4476,
      "əkıncılık": 4477,
      "xonca": 4478,
      "georgı": 4479,
      "instıtut": 4480,
      "futbol": 4481,
      "ıqtısadıyyat": 4482,
      "həmısə": 4483,
      "qobustan": 4484,
      "bo": 4485,
      "cal": 4486,
      "dol": 4487,
      "deh": 4488,
      "festıv": 4489,
      "gında": 4490,
      "gec": 4491,
      "hay": 4492,
      "hərb": 4493,
      "kt": 4494,
      "kax": 4495,
      "kuk": 4496,
      "lur": 4497,
      "len": 4498,
      "lındən": 4499,
      "mv": 4500,
      "mındən": 4501,
      "nomr": 4502,
      "omər": 4503,
      "otr": 4504,
      "paq": 4505,
      "pud": 4506,
      "rk": 4507,
      "rul": 4508,
      "tah": 4509,
      "yub": 4510,
      "ıxt": 4511,
      "əc": 4512,
      "до": 4513,
      "بلا": 4514,
      "جه": 4515,
      "خر": 4516,
      "دب": 4517,
      "ران": 4518,
      "سل": 4519,
      "شد": 4520,
      "ومن": 4521,
      "antan": 4522,
      "ardı": 4523,
      "ılahı": 4524,
      "azal": 4525,
      "olmam": 4526,
      "dırlar": 4527,
      "onal": 4528,
      "ovalı": 4529,
      "canısın": 4530,
      "əlının": 4531,
      "əlınə": 4532,
      "etməlı": 4533,
      "təxr": 4534,
      "1910": 4535,
      "agayev": 4536,
      "mənası": 4537,
      "ensı": 4538,
      "cəyı": 4539,
      "qədır": 4540,
      "təsəv": 4541,
      "qarada": 4542,
      "uzeyır": 4543,
      "mane": 4544,
      "evskı": 4545,
      "kok": 4546,
      "vermısdı": 4547,
      "ozlərı": 4548,
      "2015": 4549,
      "dərı": 4550,
      "qazıntılar": 4551,
      "ərəfəsındə": 4552,
      "kəlı": 4553,
      "qalmısdı": 4554,
      "yazılan": 4555,
      "opo": 4556,
      "kəndın": 4557,
      "mərz": 4558,
      "mərənd": 4559,
      "əsaslanan": 4560,
      "dusən": 4561,
      "maya": 4562,
      "adakı": 4563,
      "qud": 4564,
      "الج": 4565,
      "əsındəkı": 4566,
      "1995": 4567,
      "lənməsı": 4568,
      "xılas": 4569,
      "lıga": 4570,
      "ərazısını": 4571,
      "verılmıs": 4572,
      "albanıyasının": 4573,
      "salyan": 4574,
      "qurtar": 4575,
      "musəlmanların": 4576,
      "qurulusu": 4577,
      "səhərə": 4578,
      "para": 4579,
      "topcu": 4580,
      "qərarına": 4581,
      "aıddır": 4582,
      "arsın": 4583,
      "cəkmək": 4584,
      "hıssəsının": 4585,
      "əlaqəlı": 4586,
      "altına": 4587,
      "hallarda": 4588,
      "numayəndələrının": 4589,
      "ınkısafına": 4590,
      "tənəz": 4591,
      "tənqıd": 4592,
      "komıtəs": 4593,
      "aslanın": 4594,
      "ordenı": 4595,
      "babək": 4596,
      "ıdarəcılık": 4597,
      "bıldırırdı": 4598,
      "ətrafı": 4599,
      "qətnamə": 4600,
      "sentyabrda": 4601,
      "daırəvı": 4602,
      "sıyahı": 4603,
      "əbdur": 4604,
      "əmələ": 4605,
      "əsgərlərı": 4606,
      "zaqafqazıyada": 4607,
      "sıklop": 4608,
      "martın": 4609,
      "munasıbətlərı": 4610,
      "muəyyənləsdır": 4611,
      "hərəkətə": 4612,
      "sarayında": 4613,
      "baslayan": 4614,
      "dıkdə": 4615,
      "qram": 4616,
      "bolgələrındə": 4617,
      "muəllıflərının": 4618,
      "xətaı": 4619,
      "1960": 4620,
      "1803": 4621,
      "tovuz": 4622,
      "zulm": 4623,
      "xanımı": 4624,
      "təskılatının": 4625,
      "sənətının": 4626,
      "qubernıy": 4627,
      "faız": 4628,
      "əksını": 4629,
      "bolsevıklərın": 4630,
      "sıyasətının": 4631,
      "səmkır": 4632,
      "səraıtındə": 4633,
      "orqanı": 4634,
      "sakınlərı": 4635,
      "ittıfaqının": 4636,
      "ıslahatı": 4637,
      "muzeyındə": 4638,
      "batalyon": 4639,
      "savas": 4640,
      "vətəndas": 4641,
      "eramızın": 4642,
      "bərpası": 4643,
      "bəyannaməsının": 4644,
      "mumkundur": 4645,
      "dasıyır": 4646,
      "dasıyırdı": 4647,
      "mıkayıl": 4648,
      "paleolıt": 4649,
      "həqıqı": 4650,
      "kapıt": 4651,
      "ملك": 4652,
      "oynamısdır": 4653,
      "fraksıyası": 4654,
      "nusx": 4655,
      "rayonlarında": 4656,
      "tagıyev": 4657,
      "təqvımıylə": 4658,
      "tufəng": 4659,
      "tuturdu": 4660,
      "kadr": 4661,
      "zıkr": 4662,
      "safav": 4663,
      "beylə": 4664,
      "dıvız": 4665,
      "muavını": 4666,
      "pyotr": 4667,
      "qorumaq": 4668,
      "komendant": 4669,
      "numunəsı": 4670,
      "yeganə": 4671,
      "07": 4672,
      "250": 4673,
      "400": 4674,
      "66": 4675,
      "bm": 4676,
      "barı": 4677,
      "bog": 4678,
      "dq": 4679,
      "dman": 4680,
      "ep": 4681,
      "evə": 4682,
      "fur": 4683,
      "gahı": 4684,
      "iq": 4685,
      "icər": 4686,
      "kərb": 4687,
      "kav": 4688,
      "kart": 4689,
      "kust": 4690,
      "lad": 4691,
      "ment": 4692,
      "nas": 4693,
      "naz": 4694,
      "nor": 4695,
      "pop": 4696,
      "qələb": 4697,
      "ton": 4698,
      "xam": 4699,
      "xut": 4700,
      "xəyan": 4701,
      "zon": 4702,
      "zak": 4703,
      "əj": 4704,
      "дов": 4705,
      "еи": 4706,
      "ны": 4707,
      "от": 4708,
      "بد": 4709,
      "ثان": 4710,
      "حي": 4711,
      "دا": 4712,
      "رس": 4713,
      "شت": 4714,
      "فل": 4715,
      "قد": 4716,
      "كان": 4717,
      "نا": 4718,
      "يه": 4719,
      "anlı": 4720,
      "anası": 4721,
      "arlı": 4722,
      "ıla": 4723,
      "usunu": 4724,
      "əley": 4725,
      "ulur": 4726,
      "uldu": 4727,
      "ulmusdur": 4728,
      "aba": 4729,
      "səməd": 4730,
      "muqay": 4731,
      "amea": 4732,
      "bırının": 4733,
      "bırındə": 4734,
      "cuga": 4735,
      "adur": 4736,
      "admın": 4737,
      "mıt": 4738,
      "tanıs": 4739,
      "basda": 4740,
      "təsək": 4741,
      "landı": 4742,
      "rap": 4743,
      "ucbucaq": 4744,
      "xanə": 4745,
      "manna": 4746,
      "məsaf": 4747,
      "akan": 4748,
      "sahıl": 4749,
      "turbə": 4750,
      "həmsərhəd": 4751,
      "2023": 4752,
      "tarıxə": 4753,
      "tarıxcılərı": 4754,
      "avto": 4755,
      "olunub": 4756,
      "lıqlar": 4757,
      "fərrux": 4758,
      "islər": 4759,
      "qalanı": 4760,
      "ıste": 4761,
      "sıyasında": 4762,
      "yaslı": 4763,
      "bagırov": 4764,
      "الش": 4765,
      "qarabagı": 4766,
      "cənnət": 4767,
      "ermənılərdən": 4768,
      "1500": 4769,
      "təqıb": 4770,
      "kocərı": 4771,
      "qeydə": 4772,
      "torət": 4773,
      "cıxart": 4774,
      "sura": 4775,
      "surıya": 4776,
      "əsərın": 4777,
      "lıyyət": 4778,
      "stalının": 4779,
      "barıs": 4780,
      "yerləsdıyı": 4781,
      "saldı": 4782,
      "tabas": 4783,
      "tabur": 4784,
      "irəvanı": 4785,
      "naxcıvanın": 4786,
      "tutdu": 4787,
      "qoyur": 4788,
      "samıl": 4789,
      "heyətının": 4790,
      "təkrar": 4791,
      "ımperıya": 4792,
      "sayılır": 4793,
      "1940": 4794,
      "sultanov": 4795,
      "hesablam": 4796,
      "məcnun": 4797,
      "gondərılən": 4798,
      "secılməsı": 4799,
      "sevgı": 4800,
      "sevgıl": 4801,
      "komp": 4802,
      "təbrızı": 4803,
      "yayılmıs": 4804,
      "adlanan": 4805,
      "dəyər": 4806,
      "malıdır": 4807,
      "novbə": 4808,
      "1939": 4809,
      "azadlıgı": 4810,
      "etmısdılər": 4811,
      "sımfon": 4812,
      "mənbələr": 4813,
      "sunık": 4814,
      "etıraf": 4815,
      "gunəsın": 4816,
      "oktyabrda": 4817,
      "gurcustanda": 4818,
      "vəzıyyətə": 4819,
      "dagıstanın": 4820,
      "huseynovun": 4821,
      "sentyabrın": 4822,
      "etdırmısdır": 4823,
      "tıkmə": 4824,
      "cevrılmısdır": 4825,
      "uzunlugu": 4826,
      "gucləndır": 4827,
      "qırgın": 4828,
      "asıqlar": 4829,
      "ismayılın": 4830,
      "məsələlərı": 4831,
      "ایجان": 4832,
      "ıyulun": 4833,
      "1953": 4834,
      "cərcı": 4835,
      "imam": 4836,
      "memarlıgı": 4837,
      "mızın": 4838,
      "qabarıq": 4839,
      "cəbhə": 4840,
      "mıllətlərın": 4841,
      "kolon": 4842,
      "qubernator": 4843,
      "bənzər": 4844,
      "toh": 4845,
      "dunyəvı": 4846,
      "ugursuz": 4847,
      "اذربایجان": 4848,
      "saxlanılan": 4849,
      "kral": 4850,
      "krım": 4851,
      "xatun": 4852,
      "hucumun": 4853,
      "روان": 4854,
      "ıddıa": 4855,
      "bəzılərı": 4856,
      "fıkırləs": 4857,
      "qohum": 4858,
      "yuzıl": 4859,
      "xanlıqlar": 4860,
      "ınanc": 4861,
      "pesə": 4862,
      "qəmərı": 4863,
      "bırləsdırən": 4864,
      "ıstıqamətındə": 4865,
      "dəyısıklıklər": 4866,
      "cavansır": 4867,
      "abdullayev": 4868,
      "rənglı": 4869,
      "peygəm": 4870,
      "strab": 4871,
      "cəhətdən": 4872,
      "arqun": 4873,
      "ehtıyac": 4874,
      "ərmənıyyə": 4875,
      "vurgulan": 4876,
      "teleqram": 4877,
      "ıstısna": 4878,
      "sənayesının": 4879,
      "ская": 4880,
      "ımtına": 4881,
      "vaqıf": 4882,
      "qəsəbəsı": 4883,
      "qasımov": 4884,
      "cəbrayıl": 4885,
      "ələkbər": 4886,
      "xoca": 4887,
      "hulaku": 4888,
      "stratejı": 4889,
      "ərzurum": 4890,
      "بلاد": 4891,
      "safavıd": 4892,
      "beyləqan": 4893,
      "dqmv": 4894,
      "04": 4895,
      "59": 4896,
      "77": 4897,
      "82": 4898,
      "86": 4899,
      "alık": 4900,
      "bolun": 4901,
      "bada": 4902,
      "blok": 4903,
      "fan": 4904,
      "faktı": 4905,
      "gum": 4906,
      "ht": 4907,
      "has": 4908,
      "ju": 4909,
      "key": 4910,
      "ken": 4911,
      "laya": 4912,
      "lenın": 4913,
      "men": 4914,
      "pav": 4915,
      "qax": 4916,
      "qop": 4917,
      "rıs": 4918,
      "rlı": 4919,
      "razı": 4920,
      "sas": 4921,
      "sap": 4922,
      "sutyun": 4923,
      "vladı": 4924,
      "yam": 4925,
      "yasında": 4926,
      "yalan": 4927,
      "zəh": 4928,
      "zəy": 4929,
      "zmın": 4930,
      "лен": 4931,
      "оч": 4932,
      "باب": 4933,
      "ثم": 4934,
      "خرا": 4935,
      "رق": 4936,
      "سا": 4937,
      "سی": 4938,
      "شهر": 4939,
      "عة": 4940,
      "عه": 4941,
      "قر": 4942,
      "كور": 4943,
      "لان": 4944,
      "مح": 4945,
      "مش": 4946,
      "يا": 4947,
      "ınkı": 4948,
      "ans": 4949,
      "andar": 4950,
      "antık": 4951,
      "ardın": 4952,
      "ılah": 4953,
      "məmısdır": 4954,
      "məbədı": 4955,
      "dadas": 4956,
      "azərı": 4957,
      "cız": 4958,
      "oradan": 4959,
      "ornam": 4960,
      "mısır": 4961,
      "aqları": 4962,
      "etıq": 4963,
      "təc": 4964,
      "səc": 4965,
      "sımon": 4966,
      "asıb": 4967,
      "bırgə": 4968,
      "mənsub": 4969,
      "addım": 4970,
      "ener": 4971,
      "oyan": 4972,
      "cəkıs": 4973,
      "qamıs": 4974,
      "edılməsının": 4975,
      "qarət": 4976,
      "ıkən": 4977,
      "məslə": 4978,
      "verə": 4979,
      "verməyə": 4980,
      "sahıd": 4981,
      "rustaq": 4982,
      "nəb": 4983,
      "sərən": 4984,
      "avan": 4985,
      "hərf": 4986,
      "hərəm": 4987,
      "ərazılərə": 4988,
      "dıyə": 4989,
      "dıyındən": 4990,
      "ıstanda": 4991,
      "ıstandan": 4992,
      "yanı": 4993,
      "tərəfındə": 4994,
      "dovlətlərının": 4995,
      "acag": 4996,
      "acılması": 4997,
      "turklərın": 4998,
      "elxan": 4999,
      "elek": 5000,
      "yazdı": 5001,
      "ıllərə": 5002,
      "ekt": 5003,
      "kəndlərındə": 5004,
      "dusur": 5005,
      "səhərlərındən": 5006,
      "burhan": 5007,
      "ədd": 5008,
      "sıraz": 5009,
      "انها": 5010,
      "kecırməyə": 5011,
      "zəlı": 5012,
      "hakımlıyı": 5013,
      "ermənıstandakı": 5014,
      "emb": 5015,
      "gostərmısdır": 5016,
      "qanlı": 5017,
      "lərındəkı": 5018,
      "əvvəllərı": 5019,
      "darov": 5020,
      "agacı": 5021,
      "hudu": 5022,
      "təskılı": 5023,
      "əsərdə": 5024,
      "hədı": 5025,
      "ıstıfadəyə": 5026,
      "verılmısdı": 5027,
      "məhrum": 5028,
      "lıyyatı": 5029,
      "ste": 5030,
      "stel": 5031,
      "layaraq": 5032,
      "hazırlıq": 5033,
      "qurum": 5034,
      "tapmısdır": 5035,
      "tapılan": 5036,
      "musəlmanlarının": 5037,
      "səhnə": 5038,
      "topla": 5039,
      "kocurulmus": 5040,
      "torpaqlarının": 5041,
      "torpaqlarını": 5042,
      "2003": 5043,
      "qəzasında": 5044,
      "irəvana": 5045,
      "yıg": 5046,
      "olumu": 5047,
      "sırvanda": 5048,
      "qorx": 5049,
      "qoruq": 5050,
      "qorqud": 5051,
      "sultanı": 5052,
      "hesabına": 5053,
      "olkələrı": 5054,
      "mədənıyyətın": 5055,
      "mədənıyyətınə": 5056,
      "sohr": 5057,
      "secılır": 5058,
      "mocu": 5059,
      "1925": 5060,
      "1929": 5061,
      "cayın": 5062,
      "cayından": 5063,
      "insan": 5064,
      "muddə": 5065,
      "məmlək": 5066,
      "həsənın": 5067,
      "yayılması": 5068,
      "kıtabında": 5069,
      "1932": 5070,
      "1934": 5071,
      "fəalıyyətınə": 5072,
      "nazırlıyı": 5073,
      "1908": 5074,
      "quvvələrının": 5075,
      "vılayətın": 5076,
      "plana": 5077,
      "ərazılərını": 5078,
      "oloqu": 5079,
      "sahıbı": 5080,
      "qadınların": 5081,
      "məzar": 5082,
      "obyek": 5083,
      "bıldırdı": 5084,
      "bıldırmısdır": 5085,
      "dagıstanda": 5086,
      "tayfalarının": 5087,
      "sozu": 5088,
      "yoxsul": 5089,
      "etdırır": 5090,
      "edıcı": 5091,
      "baslanması": 5092,
      "əməlıyyatı": 5093,
      "dənızı": 5094,
      "munasıbətlərın": 5095,
      "donəm": 5096,
      "etmədı": 5097,
      "nəzarətı": 5098,
      "səxslərın": 5099,
      "qoyuldu": 5100,
      "1975": 5101,
      "malıkdır": 5102,
      "vaxtda": 5103,
      "təyyar": 5104,
      "tutulur": 5105,
      "ıyulda": 5106,
      "1954": 5107,
      "əyalətınə": 5108,
      "nəslındən": 5109,
      "asagıda": 5110,
      "ismayılov": 5111,
      "fıkrınə": 5112,
      "bagdada": 5113,
      "fransız": 5114,
      "cıların": 5115,
      "adlandırılır": 5116,
      "kamıl": 5117,
      "dunyaya": 5118,
      "hıssələrı": 5119,
      "bolsevıklər": 5120,
      "knyazı": 5121,
      "lınskı": 5122,
      "emık": 5123,
      "sıxıs": 5124,
      "oldurulur": 5125,
      "cografıya": 5126,
      "sakınlərın": 5127,
      "xatırə": 5128,
      "ictımaı": 5129,
      "təbıı": 5130,
      "təpərın": 5131,
      "bılmədı": 5132,
      "mənsəyı": 5133,
      "cəbhəsı": 5134,
      "mustafayev": 5135,
      "ləzg": 5136,
      "bəylərbəyı": 5137,
      "besıncı": 5138,
      "مدن": 5139,
      "qəzetının": 5140,
      "leylı": 5141,
      "leyten": 5142,
      "sessıyasında": 5143,
      "tapsırı": 5144,
      "həqıqət": 5145,
      "əlaqələrın": 5146,
      "korpu": 5147,
      "dusərgə": 5148,
      "təhlukəsızlık": 5149,
      "fıquru": 5150,
      "from": 5151,
      "abdulla": 5152,
      "xurrəm": 5153,
      "sərdarabad": 5154,
      "sıyahıyaalın": 5155,
      "federatıv": 5156,
      "ıpək": 5157,
      "oldugundan": 5158,
      "ımzaladı": 5159,
      "baslaması": 5160,
      "zərurı": 5161,
      "borcalı": 5162,
      "konqres": 5163,
      "hundur": 5164,
      "amerıka": 5165,
      "peterburq": 5166,
      "musayıət": 5167,
      "qanunverıcılık": 5168,
      "rzayev": 5169,
      "lınqv": 5170,
      "nəqsıbən": 5171,
      "antanta": 5172,
      "admınıst": 5173,
      "ardınca": 5174,
      "leytenant": 5175,
      "116": 5176,
      "33": 5177,
      "39": 5178,
      "65": 5179,
      "bıb": 5180,
      "badı": 5181,
      "bolunmusdur": 5182,
      "brest": 5183,
      "den": 5184,
      "dev": 5185,
      "dost": 5186,
      "dvın": 5187,
      "edov": 5188,
      "fas": 5189,
      "fov": 5190,
      "gıya": 5191,
      "golu": 5192,
      "iz": 5193,
      "lon": 5194,
      "lını": 5195,
      "lazar": 5196,
      "nok": 5197,
      "odur": 5198,
      "pam": 5199,
      "qdan": 5200,
      "qaya": 5201,
      "rət": 5202,
      "rası": 5203,
      "ranın": 5204,
      "rədd": 5205,
      "sh": 5206,
      "sad": 5207,
      "surul": 5208,
      "tox": 5209,
      "tem": 5210,
      "vor": 5211,
      "xər": 5212,
      "xaq": 5213,
      "yap": 5214,
      "zah": 5215,
      "zav": 5216,
      "ıg": 5217,
      "ир": 5218,
      "بها": 5219,
      "دو": 5220,
      "سن": 5221,
      "صل": 5222,
      "كن": 5223,
      "می": 5224,
      "antı": 5225,
      "ılmasından": 5226,
      "ıller": 5227,
      "asma": 5228,
      "məqal": 5229,
      "alov": 5230,
      "alını": 5231,
      "vəd": 5232,
      "usulu": 5233,
      "uslub": 5234,
      "olmasına": 5235,
      "olsun": 5236,
      "dıran": 5237,
      "canlı": 5238,
      "ələsgər": 5239,
      "əllıb": 5240,
      "ory": 5241,
      "mıstık": 5242,
      "aqda": 5243,
      "dıldı": 5244,
      "etın": 5245,
      "etməsınə": 5246,
      "təzə": 5247,
      "təcav": 5248,
      "təlım": 5249,
      "abı": 5250,
      "sıgın": 5251,
      "1911": 5252,
      "ahət": 5253,
      "lədı": 5254,
      "cular": 5255,
      "cuların": 5256,
      "ensıklop": 5257,
      "dulər": 5258,
      "luyun": 5259,
      "xanla": 5260,
      "xanlıgın": 5261,
      "ıkdə": 5262,
      "esco": 5263,
      "evız": 5264,
      "kocu": 5265,
      "lıyındə": 5266,
      "verıb": 5267,
      "akh": 5268,
      "akənd": 5269,
      "yardı": 5270,
      "həmrəy": 5271,
      "rusıyası": 5272,
      "nəınkı": 5273,
      "tarıxınə": 5274,
      "1813": 5275,
      "1830": 5276,
      "dərc": 5277,
      "ıcındə": 5278,
      "ıclas": 5279,
      "ərazını": 5280,
      "aparı": 5281,
      "dovlətcılıy": 5282,
      "gunə": 5283,
      "alardan": 5284,
      "turkman": 5285,
      "qalx": 5286,
      "qalır": 5287,
      "qalasına": 5288,
      "eldənız": 5289,
      "yazısı": 5290,
      "mınsk": 5291,
      "muhıt": 5292,
      "sıyasının": 5293,
      "dusmus": 5294,
      "buradan": 5295,
      "burju": 5296,
      "coxluq": 5297,
      "bıldı": 5298,
      "carp": 5299,
      "carlıgı": 5300,
      "artıller": 5301,
      "masa": 5302,
      "gostərdı": 5303,
      "ortaq": 5304,
      "səfır": 5305,
      "bunlara": 5306,
      "irana": 5307,
      "əsərlərı": 5308,
      "dəstəsının": 5309,
      "rəısı": 5310,
      "sankt": 5311,
      "sərqın": 5312,
      "albanıyanın": 5313,
      "doyusə": 5314,
      "salmaq": 5315,
      "vəzırov": 5316,
      "təsvırlər": 5317,
      "murt": 5318,
      "murad": 5319,
      "tutmus": 5320,
      "qoydu": 5321,
      "ordusuna": 5322,
      "bolgəsı": 5323,
      "əhalısını": 5324,
      "qurulması": 5325,
      "ayrıl": 5326,
      "1983": 5327,
      "qəzvın": 5328,
      "aparmaq": 5329,
      "kəmərlərı": 5330,
      "gerb": 5331,
      "gerbı": 5332,
      "qoruy": 5333,
      "monarx": 5334,
      "1926": 5335,
      "komedıy": 5336,
      "zadəgan": 5337,
      "yoldası": 5338,
      "اردب": 5339,
      "polıs": 5340,
      "polad": 5341,
      "ibrahımın": 5342,
      "novlərı": 5343,
      "payız": 5344,
      "turkıyədən": 5345,
      "alətlərı": 5346,
      "sahıblərının": 5347,
      "məzmun": 5348,
      "ofıs": 5349,
      "vəzıyyətdə": 5350,
      "sep": 5351,
      "skıyə": 5352,
      "qərbdə": 5353,
      "qərbdən": 5354,
      "bayragı": 5355,
      "sozlərı": 5356,
      "huseynov": 5357,
      "arazdan": 5358,
      "etdırmək": 5359,
      "baslanır": 5360,
      "baslangıc": 5361,
      "ənənələrı": 5362,
      "sımvol": 5363,
      "dondu": 5364,
      "uzundən": 5365,
      "sənədlər": 5366,
      "qırım": 5367,
      "sarayının": 5368,
      "soyqırım": 5369,
      "hadısələrın": 5370,
      "qrıb": 5371,
      "məsələyə": 5372,
      "hacıbəy": 5373,
      "nəsıb": 5374,
      "maddə": 5375,
      "qonaq": 5376,
      "sulalə": 5377,
      "kollek": 5378,
      "lıləs": 5379,
      "qubernıyasının": 5380,
      "kırman": 5381,
      "1732": 5382,
      "dayandır": 5383,
      "səmsəd": 5384,
      "kecmısdə": 5385,
      "saxlanılır": 5386,
      "hamam": 5387,
      "atəskəs": 5388,
      "komıssıya": 5389,
      "formalasması": 5390,
      "mutəllıb": 5391,
      "lasdırma": 5392,
      "etnoqrafık": 5393,
      "kənarda": 5394,
      "cəbhəsının": 5395,
      "axundovun": 5396,
      "pıskop": 5397,
      "sabır": 5398,
      "pəhləv": 5399,
      "yaradıcılı": 5400,
      "yaradıcılıgı": 5401,
      "səhrıstanına": 5402,
      "مدين": 5403,
      "ıcraıyyə": 5404,
      "məlumdur": 5405,
      "səfərı": 5406,
      "xanlıqları": 5407,
      "ولای": 5408,
      "qorunması": 5409,
      "1888": 5410,
      "kılsəsının": 5411,
      "dasnaksutyun": 5412,
      "munaqısə": 5413,
      "konfransı": 5414,
      "televız": 5415,
      "mınıllık": 5416,
      "nəqlıyyat": 5417,
      "maku": 5418,
      "makedon": 5419,
      "rutbəlı": 5420,
      "1864": 5421,
      "butovlukdə": 5422,
      "toponımı": 5423,
      "hacıyev": 5424,
      "وهي": 5425,
      "akademık": 5426,
      "patrı": 5427,
      "astrolojı": 5428,
      "lazımdır": 5429,
      "rubl": 5430,
      "ovıcın": 5431,
      "səhıdlər": 5432,
      "press": 5433,
      "olduguna": 5434,
      "bosal": 5435,
      "ingıltərə": 5436,
      "mənafey": 5437,
      "bılməzdı": 5438,
      "hokmranlıgı": 5439,
      "nıkolay": 5440,
      "hazırladıgı": 5441,
      "parfıya": 5442,
      "komıssarları": 5443,
      "kabınetının": 5444,
      "sfsr": 5445,
      "граф": 5446,
      "dıyyət": 5447,
      "mubahısə": 5448,
      "keramık": 5449,
      "xəlıfə": 5450,
      "proqram": 5451,
      "hurufılık": 5452,
      "muəssısə": 5453,
      "seyıdov": 5454,
      "dorduncu": 5455,
      "urartu": 5456,
      "nomrəlı": 5457,
      "bmt": 5458,
      "icərıs": 5459,
      "əleyh": 5460,
      "muqayısə": 5461,
      "yuzıllıyın": 5462,
      "pesəkar": 5463,
      "peygəmbər": 5464,
      "strabon": 5465,
      "zəhmət": 5466,
      "pambıq": 5467,
      "06": 5468,
      "1000": 5469,
      "68": 5470,
      "88": 5471,
      "99": 5472,
      "adıy": 5473,
      "aıt": 5474,
      "bec": 5475,
      "busu": 5476,
      "bom": 5477,
      "bənd": 5478,
      "boh": 5479,
      "caz": 5480,
      "cah": 5481,
      "dok": 5482,
      "fay": 5483,
      "fak": 5484,
      "fıt": 5485,
      "facı": 5486,
      "folk": 5487,
      "gov": 5488,
      "getmək": 5489,
      "ho": 5490,
      "hıst": 5491,
      "kət": 5492,
      "lazı": 5493,
      "mıyan": 5494,
      "nıy": 5495,
      "nat": 5496,
      "olı": 5497,
      "pa": 5498,
      "pın": 5499,
      "qayı": 5500,
      "ros": 5501,
      "rok": 5502,
      "sakı": 5503,
      "sem": 5504,
      "tsov": 5505,
      "toq": 5506,
      "ual": 5507,
      "vey": 5508,
      "vax": 5509,
      "xın": 5510,
      "xərı": 5511,
      "yor": 5512,
      "zət": 5513,
      "zəl": 5514,
      "əlıq": 5515,
      "əbədı": 5516,
      "ме": 5517,
      "ту": 5518,
      "اع": 5519,
      "تح": 5520,
      "تر": 5521,
      "ذا": 5522,
      "ذي": 5523,
      "سان": 5524,
      "شان": 5525,
      "شاه": 5526,
      "قص": 5527,
      "وح": 5528,
      "گی": 5529,
      "ınad": 5530,
      "anlar": 5531,
      "arm": 5532,
      "ıll": 5533,
      "ıllə": 5534,
      "ırs": 5535,
      "ırsı": 5536,
      "ısdən": 5537,
      "ıstək": 5538,
      "asıyaya": 5539,
      "məsə": 5540,
      "məmalık": 5541,
      "unesco": 5542,
      "ayaz": 5543,
      "lızə": 5544,
      "daımı": 5545,
      "daqo": 5546,
      "almısdır": 5547,
      "alması": 5548,
      "ıye": 5549,
      "ıyəsı": 5550,
      "olmayaraq": 5551,
      "kıb": 5552,
      "azərbaycanında": 5553,
      "ələs": 5554,
      "əlını": 5555,
      "oruc": 5556,
      "aqa": 5557,
      "ulla": 5558,
      "təməl": 5559,
      "abakh": 5560,
      "sədıl": 5561,
      "səfə": 5562,
      "agında": 5563,
      "tım": 5564,
      "tıon": 5565,
      "tıvı": 5566,
      "mənfı": 5567,
      "bəxs": 5568,
      "ləqə": 5569,
      "ader": 5570,
      "enc": 5571,
      "ens": 5572,
      "enlı": 5573,
      "tanım": 5574,
      "oyunu": 5575,
      "oyedov": 5576,
      "lum": 5577,
      "qəbələ": 5578,
      "basqın": 5579,
      "təsnıf": 5580,
      "qarac": 5581,
      "ızah": 5582,
      "ızmı": 5583,
      "ımının": 5584,
      "uzə": 5585,
      "kot": 5586,
      "əsrı": 5587,
      "yarar": 5588,
      "yarıs": 5589,
      "əyən": 5590,
      "2017": 5591,
      "yerlərındə": 5592,
      "oluna": 5593,
      "tərəfdar": 5594,
      "acıl": 5595,
      "alaraq": 5596,
      "ləsmıs": 5597,
      "ləsdırılməsı": 5598,
      "ədək": 5599,
      "ıllərınə": 5600,
      "afa": 5601,
      "dırılmısdı": 5602,
      "ıstınt": 5603,
      "mınlık": 5604,
      "ukray": 5605,
      "kəndındən": 5606,
      "suqu": 5607,
      "əsaslı": 5608,
      "səhərdə": 5609,
      "olarkən": 5610,
      "olduqları": 5611,
      "coxsaylı": 5612,
      "bılın": 5613,
      "bılmır": 5614,
      "انه": 5615,
      "dagın": 5616,
      "الي": 5617,
      "kecırən": 5618,
      "sovetlərə": 5619,
      "gəlmıs": 5620,
      "gəldılər": 5621,
      "lənən": 5622,
      "masıya": 5623,
      "gostərdıyı": 5624,
      "gostərməyə": 5625,
      "qanunu": 5626,
      "əvvəllərınə": 5627,
      "sənın": 5628,
      "1501": 5629,
      "toru": 5630,
      "karabakh": 5631,
      "repres": 5632,
      "munsı": 5633,
      "muncuq": 5634,
      "verılməsını": 5635,
      "yasayırdı": 5636,
      "yaradır": 5637,
      "kecırılməsınə": 5638,
      "vəzırı": 5639,
      "zəngılan": 5640,
      "seym": 5641,
      "naxcıvanı": 5642,
      "naxcıvanda": 5643,
      "kurqan": 5644,
      "ayrım": 5645,
      "baxıs": 5646,
      "parat": 5647,
      "qərargah": 5648,
      "torpaqlar": 5649,
      "vıda": 5650,
      "ımperıyasına": 5651,
      "xəzın": 5652,
      "apardıgı": 5653,
      "kəskul": 5654,
      "formasıya": 5655,
      "baslamısdılar": 5656,
      "sırvana": 5657,
      "ısgalına": 5658,
      "sədda": 5659,
      "fıkırlər": 5660,
      "sevg": 5661,
      "1924": 5662,
      "muharıbəsındən": 5663,
      "intern": 5664,
      "tərkıbı": 5665,
      "genısləndır": 5666,
      "məlumatına": 5667,
      "hakımıyyətını": 5668,
      "yaranmısdır": 5669,
      "bırləsmələrı": 5670,
      "adlanırdı": 5671,
      "ıstəyən": 5672,
      "ıstəyı": 5673,
      "kəndlılərı": 5674,
      "dekabrda": 5675,
      "fəalıyyətə": 5676,
      "fəalıyyətını": 5677,
      "mulkun": 5678,
      "1904": 5679,
      "1909": 5680,
      "quvvələr": 5681,
      "gozlən": 5682,
      "mənbələrındə": 5683,
      "qanunı": 5684,
      "sunbul": 5685,
      "babayev": 5686,
      "separat": 5687,
      "skaya": 5688,
      "qətlı": 5689,
      "tələblərı": 5690,
      "zıdd": 5691,
      "abıdələrı": 5692,
      "ostanı": 5693,
      "əsgərlər": 5694,
      "ənənəvı": 5695,
      "plen": 5696,
      "rəqsı": 5697,
      "komandırı": 5698,
      "munasıbətılə": 5699,
      "muddətdə": 5700,
      "məsələsınə": 5701,
      "qoyulmus": 5702,
      "qoyulması": 5703,
      "muəllıflərı": 5704,
      "1961": 5705,
      "1805": 5706,
      "این": 5707,
      "1956": 5708,
      "əyalətındə": 5709,
      "hərəkatına": 5710,
      "mosul": 5711,
      "hacıbəyov": 5712,
      "kecı": 5713,
      "poetık": 5714,
      "hokumətın": 5715,
      "hazırlanması": 5716,
      "mazandar": 5717,
      "tanınır": 5718,
      "tanınmıs": 5719,
      "qabaq": 5720,
      "bagdadı": 5721,
      "fransa": 5722,
      "məktubda": 5723,
      "xəlvə": 5724,
      "xəlvət": 5725,
      "kamal": 5726,
      "ımzalanmıs": 5727,
      "kırıl": 5728,
      "cılərının": 5729,
      "satırık": 5730,
      "olduruldu": 5731,
      "qəhrəmanı": 5732,
      "muhasırəsı": 5733,
      "həbıb": 5734,
      "əməkdas": 5735,
      "mesə": 5736,
      "təbıət": 5737,
      "əksərıyyətını": 5738,
      "təhlukə": 5739,
      "поли": 5740,
      "muzeyı": 5741,
      "təbəə": 5742,
      "əfsarlar": 5743,
      "ıttıfaqı": 5744,
      "əlıfba": 5745,
      "cəbhəsındə": 5746,
      "qələm": 5747,
      "zıyad": 5748,
      "əməlıyyatlar": 5749,
      "deportasıyası": 5750,
      "fuzul": 5751,
      "sıstemınə": 5752,
      "qurbanı": 5753,
      "pəhləvı": 5754,
      "buraxıl": 5755,
      "sımvolızə": 5756,
      "vəzıfəsını": 5757,
      "bəyannaməsı": 5758,
      "herat": 5759,
      "allahın": 5760,
      "sorəy": 5761,
      "elmlər": 5762,
      "karvansaralar": 5763,
      "pedaqo": 5764,
      "ıdeyaları": 5765,
      "ıslahatlar": 5766,
      "taxta": 5767,
      "xosrov": 5768,
      "taley": 5769,
      "اهل": 5770,
      "fərqlənır": 5771,
      "ıclası": 5772,
      "gədəbəydən": 5773,
      "على": 5774,
      "hurufı": 5775,
      "истории": 5776,
      "baglanması": 5777,
      "bəhram": 5778,
      "camaatı": 5779,
      "elementlərı": 5780,
      "guzəst": 5781,
      "lullah": 5782,
      "але": 5783,
      "qənaət": 5784,
      "həvalə": 5785,
      "papaq": 5786,
      "xıyabanı": 5787,
      "restav": 5788,
      "mıxaıl": 5789,
      "tələbı": 5790,
      "karyagın": 5791,
      "nətıcələndı": 5792,
      "məglubıyyətə": 5793,
      "xahıs": 5794,
      "arakel": 5795,
      "bəxtıyar": 5796,
      "narazılıq": 5797,
      "dıplomatık": 5798,
      "sopen": 5799,
      "avtob": 5800,
      "burosunun": 5801,
      "ucmuədzın": 5802,
      "tıdaı": 5803,
      "umumılıkdə": 5804,
      "ardıcıl": 5805,
      "qaradag": 5806,
      "opotam": 5807,
      "komıtəsınə": 5808,
      "xammal": 5809,
      "xəyanət": 5810,
      "tabasaran": 5811,
      "sevgılının": 5812,
      "novbədə": 5813,
      "məsləhət": 5814,
      "fovqəl": 5815,
      "nokər": 5816,
      "təcavuz": 5817,
      "ofıser": 5818,
      "qrıboyedov": 5819,
      "مدينة": 5820,
      "icərısəhər": 5821,
      "adıyla": 5822,
      "hıstory": 5823,
      "lazımı": 5824,
      "əlıqulu": 5825,
      "05": 5826,
      "09": 5827,
      "117": 5828,
      "69": 5829,
      "aının": 5830,
      "bolunur": 5831,
      "clə": 5832,
      "casına": 5833,
      "dqr": 5834,
      "faz": 5835,
      "fer": 5836,
      "fız": 5837,
      "ffə": 5838,
      "gucun": 5839,
      "getdı": 5840,
      "hı": 5841,
      "hıd": 5842,
      "klərı": 5843,
      "lab": 5844,
      "nes": 5845,
      "qam": 5846,
      "qənı": 5847,
      "rad": 5848,
      "rəsı": 5849,
      "sərb": 5850,
      "suc": 5851,
      "sel": 5852,
      "sek": 5853,
      "tog": 5854,
      "tof": 5855,
      "udın": 5856,
      "vurul": 5857,
      "vəsındə": 5858,
      "vedı": 5859,
      "xən": 5860,
      "xəndə": 5861,
      "xarə": 5862,
      "yak": 5863,
      "yunun": 5864,
      "zıl": 5865,
      "zıyan": 5866,
      "али": 5867,
      "ис": 5868,
      "сп": 5869,
      "بت": 5870,
      "تبر": 5871,
      "خو": 5872,
      "رف": 5873,
      "مر": 5874,
      "مي": 5875,
      "یز": 5876,
      "ınter": 5877,
      "ərkən": 5878,
      "anım": 5879,
      "anevıc": 5880,
      "arv": 5881,
      "aray": 5882,
      "aradan": 5883,
      "asıyasının": 5884,
      "ayaq": 5885,
      "aylarında": 5886,
      "əsəd": 5887,
      "azadə": 5888,
      "alları": 5889,
      "almısdı": 5890,
      "alayı": 5891,
      "almaga": 5892,
      "ıyın": 5893,
      "ıyanı": 5894,
      "ıyunda": 5895,
      "ıyaları": 5896,
      "ura": 5897,
      "ətınə": 5898,
      "olcu": 5899,
      "olmaga": 5900,
      "olacaq": 5901,
      "ontsov": 5902,
      "atın": 5903,
      "atət": 5904,
      "dıllərı": 5905,
      "dılındən": 5906,
      "etıya": 5907,
      "abbası": 5908,
      "səkıl": 5909,
      "agdərə": 5910,
      "aman": 5911,
      "amıl": 5912,
      "eya": 5913,
      "tıbat": 5914,
      "əmırı": 5915,
      "bırını": 5916,
      "budaq": 5917,
      "mənı": 5918,
      "mənsur": 5919,
      "bədəl": 5920,
      "ıləcək": 5921,
      "adar": 5922,
      "axtar": 5923,
      "duzən": 5924,
      "cəza": 5925,
      "qədə": 5926,
      "qarap": 5927,
      "qarısıq": 5928,
      "ızlərı": 5929,
      "ızadə": 5930,
      "landır": 5931,
      "lanaraq": 5932,
      "ucar": 5933,
      "ımam": 5934,
      "xanlı": 5935,
      "xanlar": 5936,
      "əvər": 5937,
      "əvan": 5938,
      "məshəd": 5939,
      "məsalık": 5940,
      "verməlı": 5941,
      "verdıyev": 5942,
      "saha": 5943,
      "sahələrı": 5944,
      "məkdən": 5945,
      "sonlarına": 5946,
      "sonsuz": 5947,
      "ıdın": 5948,
      "ozlərınə": 5949,
      "ozbasına": 5950,
      "ozbək": 5951,
      "mamısdır": 5952,
      "tərtıbat": 5953,
      "ogul": 5954,
      "həmsədr": 5955,
      "nək": 5956,
      "sərhədı": 5957,
      "dovrdən": 5958,
      "umunda": 5959,
      "yana": 5960,
      "apaq": 5961,
      "asındakı": 5962,
      "adətən": 5963,
      "tərəfınə": 5964,
      "acılıq": 5965,
      "gunəsı": 5966,
      "okur": 5967,
      "turklər": 5968,
      "qalasını": 5969,
      "eld": 5970,
      "eldar": 5971,
      "xalxal": 5972,
      "ıllərdən": 5973,
      "kəndlər": 5974,
      "ıtırdı": 5975,
      "bakıdan": 5976,
      "bakıdakı": 5977,
      "yasına": 5978,
      "xalqlar": 5979,
      "buranın": 5980,
      "sırada": 5981,
      "adamı": 5982,
      "mıllıləs": 5983,
      "bılən": 5984,
      "bıldırılırdı": 5985,
      "اند": 5986,
      "mədın": 5987,
      "bagıs": 5988,
      "bagları": 5989,
      "carlıgının": 5990,
      "artması": 5991,
      "buldan": 5992,
      "sovetınə": 5993,
      "lənır": 5994,
      "gostərılmısdır": 5995,
      "lıgından": 5996,
      "ermənılərının": 5997,
      "lərdəkı": 5998,
      "kockun": 5999,
      "darda": 6000,
      "nəfərın": 6001,
      "surx": 6002,
      "suranın": 6003,
      "bunların": 6004,
      "onlarla": 6005,
      "lasması": 6006,
      "lasdırılması": 6007,
      "demısdır": 6008,
      "azərbaycanlılarının": 6009,
      "azərbaycanlılardan": 6010,
      "məhəl": 6011,
      "haqqındadır": 6012,
      "albanıyada": 6013,
      "albanıyasında": 6014,
      "doyuslərdə": 6015,
      "layıq": 6016,
      "kecırılmısdır": 6017,
      "məhəmmədın": 6018,
      "yaradılıb": 6019,
      "tapıntılar": 6020,
      "tutdular": 6021,
      "qoymusdur": 6022,
      "bolgus": 6023,
      "həyatının": 6024,
      "musəlmanları": 6025,
      "1985": 6026,
      "1987": 6027,
      "alındı": 6028,
      "alınmısdır": 6029,
      "parlaq": 6030,
      "termını": 6031,
      "kocurulməyə": 6032,
      "heybət": 6033,
      "qərarın": 6034,
      "torpaqlarından": 6035,
      "arslan": 6036,
      "usta": 6037,
      "dıqqətı": 6038,
      "qəzn": 6039,
      "ımperıyasında": 6040,
      "deyə": 6041,
      "irəvanda": 6042,
      "sayını": 6043,
      "kəsın": 6044,
      "1943": 6045,
      "əlaqələr": 6046,
      "qorxu": 6047,
      "lısanevıc": 6048,
      "olkələrın": 6049,
      "olkələrının": 6050,
      "secıl": 6051,
      "təhkım": 6052,
      "mod": 6053,
      "cəlalı": 6054,
      "yolla": 6055,
      "qubalı": 6056,
      "məlumatlara": 6057,
      "ارس": 6058,
      "mahmu": 6059,
      "tısas": 6060,
      "catır": 6061,
      "1933": 6062,
      "nazırlıyının": 6063,
      "aslanov": 6064,
      "vılayətlərı": 6065,
      "qosunlarına": 6066,
      "cəkılən": 6067,
      "orduya": 6068,
      "hadıs": 6069,
      "ərazılərdən": 6070,
      "qanuna": 6071,
      "qadınları": 6072,
      "qadınlara": 6073,
      "trab": 6074,
      "asıyada": 6075,
      "сть": 6076,
      "sımalda": 6077,
      "sımalında": 6078,
      "uydur": 6079,
      "qısmı": 6080,
      "tayfalar": 6081,
      "yaratdıgı": 6082,
      "arazın": 6083,
      "daırəsının": 6084,
      "sıyahısına": 6085,
      "məhkəməsı": 6086,
      "ostanın": 6087,
      "əbvab": 6088,
      "oturaq": 6089,
      "komandır": 6090,
      "gətırıl": 6091,
      "cevrıldı": 6092,
      "cevrılmısdı": 6093,
      "xaraba": 6094,
      "sarayın": 6095,
      "dəstələrının": 6096,
      "balkan": 6097,
      "soyuq": 6098,
      "ərzın": 6099,
      "musıqısı": 6100,
      "qurultayda": 6101,
      "qoyulur": 6102,
      "xəttı": 6103,
      "xətaının": 6104,
      "1968": 6105,
      "qatıldı": 6106,
      "tutuldu": 6107,
      "tutulurdu": 6108,
      "1958": 6109,
      "metr": 6110,
      "kecə": 6111,
      "mərkəzlı": 6112,
      "maddəs": 6113,
      "təskılatları": 6114,
      "ная": 6115,
      "наро": 6116,
      "qəddar": 6117,
      "ıstehkam": 6118,
      "səraıtı": 6119,
      "qazanmısdır": 6120,
      "1897": 6121,
      "1898": 6122,
      "yaxınlıgındakı": 6123,
      "adlandırılmısdır": 6124,
      "quldur": 6125,
      "feoda": 6126,
      "kampan": 6127,
      "1738": 6128,
      "gurculər": 6129,
      "polku": 6130,
      "dərbəndnamə": 6131,
      "baı": 6132,
      "sıyasətını": 6133,
      "səmsədıl": 6134,
      "danısıqlara": 6135,
      "qarsılas": 6136,
      "təklıfı": 6137,
      "atəsə": 6138,
      "yuksəklık": 6139,
      "regıon": 6140,
      "monqolların": 6141,
      "imperıyasının": 6142,
      "gızır": 6143,
      "tıkılmıs": 6144,
      "dastanının": 6145,
      "ıddıaları": 6146,
      "etdıkdən": 6147,
      "olmamısdır": 6148,
      "etnos": 6149,
      "əlyazması": 6150,
      "danısırlar": 6151,
      "bəzılərının": 6152,
      "deportasıyanın": 6153,
      "nəsıhət": 6154,
      "knyazlıgı": 6155,
      "texnık": 6156,
      "məqsədlə": 6157,
      "vəzıfəsınə": 6158,
      "cılıyın": 6159,
      "bagdadda": 6160,
      "1873": 6161,
      "1875": 6162,
      "anadoluda": 6163,
      "seckılərın": 6164,
      "adlandırır": 6165,
      "karvansara": 6166,
      "cultur": 6167,
      "culfa": 6168,
      "zorla": 6169,
      "mıqrasıya": 6170,
      "mohkəmləndır": 6171,
      "sərkərdəsı": 6172,
      "paltar": 6173,
      "coban": 6174,
      "даг": 6175,
      "dərəcəlı": 6176,
      "oynayır": 6177,
      "mesopotam": 6178,
      "sıfahı": 6179,
      "rəsmlərı": 6180,
      "parlamentının": 6181,
      "əlaqələndırır": 6182,
      "səvıyyədə": 6183,
      "zulfuqar": 6184,
      "unıversıty": 6185,
      "fəlsəfı": 6186,
      "ıdarəsı": 6187,
      "fəzlullah": 6188,
      "seırındə": 6189,
      "vəlıəh": 6190,
      "история": 6191,
      "krasovskının": 6192,
      "əsyaları": 6193,
      "komıtələrı": 6194,
      "sənətkarlıq": 6195,
      "bəhrələn": 6196,
      "mərhələsındə": 6197,
      "olduqdan": 6198,
      "elementlərını": 6199,
      "anlayıs": 6200,
      "ılıyın": 6201,
      "metallur": 6202,
      "munaqısəsı": 6203,
      "قليم": 6204,
      "benken": 6205,
      "burcunun": 6206,
      "hovqəl": 6207,
      "əbulfəz": 6208,
      "тель": 6209,
      "poru": 6210,
      "xıyaban": 6211,
      "dəstəsınə": 6212,
      "donanması": 6213,
      "gələcəkdə": 6214,
      "azerbaı": 6215,
      "pənah": 6216,
      "qalıqları": 6217,
      "arsaxın": 6218,
      "kompleksı": 6219,
      "movqeyı": 6220,
      "reınteqrasıya": 6221,
      "funk": 6222,
      "sərəfınə": 6223,
      "tıkıntı": 6224,
      "nəzərıyyəsı": 6225,
      "mehmandarov": 6226,
      "desyat": 6227,
      "gedısındə": 6228,
      "خزر": 6229,
      "ekspon": 6230,
      "рус": 6231,
      "təsəbbusu": 6232,
      "mədrəsə": 6233,
      "xronologıyası": 6234,
      "festıvalı": 6235,
      "tənəzzul": 6236,
      "iqtıs": 6237,
      "zakır": 6238,
      "mıtra": 6239,
      "sımfonık": 6240,
      "cərcıvəsındə": 6241,
      "xocavənd": 6242,
      "sasanı": 6243,
      "ornament": 6244,
      "səcıyy": 6245,
      "elektr": 6246,
      "lınqvıstık": 6247,
      "vorontsov": 6248,
      "ensıklopedıy": 6249,
      "murtuz": 6250,
      "pəhləvılər": 6251,
      "əleyhınə": 6252,
      "becər": 6253,
      "folklor": 6254,
      "sakıt": 6255,
      "toqqus": 6256,
      "ukrayna": 6257,
      "suqutun": 6258,
      "səddadılər": 6259,
      "fuzulının": 6260,
      "pedaqojı": 6261,
      "tofıq": 6262,
      "benkendor": 6263,
      "64": 6264,
      "76": 6265,
      "94": 6266,
      "cıs": 6267,
      "cer": 6268,
      "camı": 6269,
      "clop": 6270,
      "dasının": 6271,
      "fabr": 6272,
      "flo": 6273,
      "fonunda": 6274,
      "gav": 6275,
      "getdık": 6276,
      "huz": 6277,
      "hıylə": 6278,
      "hasıy": 6279,
      "io": 6280,
      "ima": 6281,
      "iber": 6282,
      "les": 6283,
      "ləsı": 6284,
      "ml": 6285,
      "mer": 6286,
      "ns": 6287,
      "nuz": 6288,
      "namız": 6289,
      "odun": 6290,
      "pus": 6291,
      "pot": 6292,
      "quz": 6293,
      "qoc": 6294,
      "roy": 6295,
      "sılə": 6296,
      "salar": 6297,
      "suk": 6298,
      "sabr": 6299,
      "seh": 6300,
      "sanı": 6301,
      "tol": 6302,
      "tul": 6303,
      "trup": 6304,
      "utı": 6305,
      "vıq": 6306,
      "wıl": 6307,
      "xılə": 6308,
      "xələ": 6309,
      "xıt": 6310,
      "xxi": 6311,
      "yel": 6312,
      "yərək": 6313,
      "yclop": 6314,
      "zan": 6315,
      "zar": 6316,
      "zır": 6317,
      "zol": 6318,
      "zub": 6319,
      "zım": 6320,
      "zıya": 6321,
      "əcəm": 6322,
      "его": 6323,
      "иб": 6324,
      "ков": 6325,
      "лов": 6326,
      "ми": 6327,
      "ци": 6328,
      "اق": 6329,
      "اي": 6330,
      "بع": 6331,
      "بار": 6332,
      "جن": 6333,
      "خلا": 6334,
      "سه": 6335,
      "صف": 6336,
      "ضا": 6337,
      "نم": 6338,
      "وغ": 6339,
      "يحي": 6340,
      "ınf": 6341,
      "artım": 6342,
      "ırd": 6343,
      "ıradə": 6344,
      "dəddın": 6345,
      "dəclə": 6346,
      "ıslərın": 6347,
      "ıslərə": 6348,
      "astop": 6349,
      "asıyanın": 6350,
      "məb": 6351,
      "mələrının": 6352,
      "məhəb": 6353,
      "lıc": 6354,
      "lıder": 6355,
      "lərdır": 6356,
      "əskı": 6357,
      "dız": 6358,
      "alır": 6359,
      "ıyaz": 6360,
      "usdur": 6361,
      "usuna": 6362,
      "urlər": 6363,
      "olet": 6364,
      "oloq": 6365,
      "dırmıs": 6366,
      "cım": 6367,
      "atay": 6368,
      "atını": 6369,
      "atəsı": 6370,
      "canı": 6371,
      "aqun": 6372,
      "ulyar": 6373,
      "ulması": 6374,
      "ullah": 6375,
      "ulıslam": 6376,
      "dılən": 6377,
      "etməsını": 6378,
      "təch": 6379,
      "səp": 6380,
      "səda": 6381,
      "muzə": 6382,
      "asımı": 6383,
      "danın": 6384,
      "1900": 6385,
      "amaga": 6386,
      "adlarının": 6387,
      "adrat": 6388,
      "mıfık": 6389,
      "enk": 6390,
      "enes": 6391,
      "duy": 6392,
      "osroy": 6393,
      "edılmə": 6394,
      "edılərək": 6395,
      "edılməsındən": 6396,
      "edılməlıdır": 6397,
      "basını": 6398,
      "ermənının": 6399,
      "ermənıləs": 6400,
      "lanmısdır": 6401,
      "rac": 6402,
      "uzum": 6403,
      "xankəndındə": 6404,
      "ıkısı": 6405,
      "ıbat": 6406,
      "ıbtıdaı": 6407,
      "əhmədov": 6408,
      "komın": 6409,
      "koməyı": 6410,
      "koməy": 6411,
      "lıyət": 6412,
      "sahən": 6413,
      "sahmat": 6414,
      "sahse": 6415,
      "ıdman": 6416,
      "məsıh": 6417,
      "həmıd": 6418,
      "ruslara": 6419,
      "rusıyasının": 6420,
      "tarıxını": 6421,
      "sərur": 6422,
      "sərnıs": 6423,
      "1870": 6424,
      "yerlərı": 6425,
      "dərs": 6426,
      "ucuncusu": 6427,
      "gıcı": 6428,
      "kecmısdır": 6429,
      "adək": 6430,
      "gorən": 6431,
      "gormək": 6432,
      "tərəflı": 6433,
      "acır": 6434,
      "gunda": 6435,
      "turkdıllı": 6436,
      "qalmaqda": 6437,
      "naməsı": 6438,
      "namənın": 6439,
      "ləsdı": 6440,
      "xalca": 6441,
      "dırılən": 6442,
      "mınor": 6443,
      "kənddə": 6444,
      "suqut": 6445,
      "suqutu": 6446,
      "mərd": 6447,
      "mərasımı": 6448,
      "fəxr": 6449,
      "ıtkı": 6450,
      "səhərlərının": 6451,
      "səhərlərındə": 6452,
      "onundan": 6453,
      "varısı": 6454,
      "varsan": 6455,
      "sırf": 6456,
      "sırk": 6457,
      "sıravı": 6458,
      "boluk": 6459,
      "brıtan": 6460,
      "banu": 6461,
      "banısı": 6462,
      "daglılar": 6463,
      "bagır": 6464,
      "الد": 6465,
      "الف": 6466,
      "الق": 6467,
      "الاب": 6468,
      "kecırdılər": 6469,
      "lılarla": 6470,
      "hamıs": 6471,
      "əvvəllərındən": 6472,
      "səncər": 6473,
      "ermənılərlə": 6474,
      "rıf": 6475,
      "150": 6476,
      "təqdır": 6477,
      "surgun": 6478,
      "surasına": 6479,
      "sılas": 6480,
      "yaxsılas": 6481,
      "həf": 6482,
      "lasdırıl": 6483,
      "munsıf": 6484,
      "yenıvəng": 6485,
      "137": 6486,
      "qəbulu": 6487,
      "sərqındə": 6488,
      "stal": 6489,
      "yerləsdır": 6490,
      "neolıt": 6491,
      "cauc": 6492,
      "layırdı": 6493,
      "layırdılar": 6494,
      "salam": 6495,
      "etməkdə": 6496,
      "təsvırlı": 6497,
      "tutaraq": 6498,
      "qoymusdu": 6499,
      "qeydlər": 6500,
      "bolgəsınə": 6501,
      "rəhman": 6502,
      "ayrılaraq": 6503,
      "səhn": 6504,
      "taras": 6505,
      "2002": 6506,
      "qəzv": 6507,
      "qəzasının": 6508,
      "deyır": 6509,
      "deyılır": 6510,
      "irəvandan": 6511,
      "yıgın": 6512,
      "kəsb": 6513,
      "1942": 6514,
      "formalar": 6515,
      "formada": 6516,
      "kəmərı": 6517,
      "xackar": 6518,
      "qacarların": 6519,
      "qorbac": 6520,
      "ılıgı": 6521,
      "saxlaya": 6522,
      "gondərıl": 6523,
      "gondərərək": 6524,
      "gondərıldı": 6525,
      "gondərılməsı": 6526,
      "mədənıyyətındə": 6527,
      "sobə": 6528,
      "sevastop": 6529,
      "motıvı": 6530,
      "1927": 6531,
      "cəlıl": 6532,
      "cayına": 6533,
      "yolları": 6534,
      "ınkısafını": 6535,
      "ınkısafında": 6536,
      "qubadlı": 6537,
      "məmul": 6538,
      "quvvəsı": 6539,
      "hədd": 6540,
      "ارمين": 6541,
      "hakımıyyətın": 6542,
      "mahır": 6543,
      "mahabad": 6544,
      "yayılıb": 6545,
      "bırləsməsı": 6546,
      "adlanır": 6547,
      "ibrahımxəlıl": 6548,
      "catıs": 6549,
      "1931": 6550,
      "1935": 6551,
      "yemək": 6552,
      "quvvələrını": 6553,
      "vılayətə": 6554,
      "batın": 6555,
      "gələrək": 6556,
      "davamlı": 6557,
      "altındakı": 6558,
      "sınfı": 6559,
      "sımaldakı": 6560,
      "hucumları": 6561,
      "aılələrının": 6562,
      "islamın": 6563,
      "alısləmə": 6564,
      "ана": 6565,
      "vəzıyyətını": 6566,
      "dagıstana": 6567,
      "ətrafına": 6568,
      "tayfalarından": 6569,
      "sozlərınə": 6570,
      "edıa": 6571,
      "avqustda": 6572,
      "abıdəsı": 6573,
      "ostanına": 6574,
      "baslangıcı": 6575,
      "əsgəran": 6576,
      "ənənəsı": 6577,
      "usyanlar": 6578,
      "nıgar": 6579,
      "gətırır": 6580,
      "cevrılır": 6581,
      "generalı": 6582,
      "draqun": 6583,
      "qırx": 6584,
      "dəstəyı": 6585,
      "susada": 6586,
      "musıqılı": 6587,
      "qəbırıstan": 6588,
      "cıxardı": 6589,
      "xrıstıanlıgı": 6590,
      "1966": 6591,
      "ilham": 6592,
      "1951": 6593,
      "metalısləmə": 6594,
      "əyalətının": 6595,
      "əyalətlərı": 6596,
      "mudaxılə": 6597,
      "bəyannamə": 6598,
      "məcburıyyətındə": 6599,
      "nəsımının": 6600,
      "ləgvı": 6601,
      "məruzə": 6602,
      "hazırlanan": 6603,
      "tanınan": 6604,
      "gırov": 6605,
      "fıkrını": 6606,
      "hıng": 6607,
      "bagdadın": 6608,
      "səkıdə": 6609,
      "1894": 6610,
      "oqrafıya": 6611,
      "əhəmıyyətə": 6612,
      "nəsrəddın": 6613,
      "adamları": 6614,
      "kvadrat": 6615,
      "fevralda": 6616,
      "qubernıyasında": 6617,
      "faızı": 6618,
      "ugra": 6619,
      "əksınə": 6620,
      "seyxulıslam": 6621,
      "hokmdarın": 6622,
      "hokmdarları": 6623,
      "1733": 6624,
      "dunyasında": 6625,
      "konstıtusıyası": 6626,
      "səmsı": 6627,
      "sıxlınskı": 6628,
      "qarsılan": 6629,
      "oldurulməsı": 6630,
      "xəbərdar": 6631,
      "umumdunya": 6632,
      "axund": 6633,
      "formalasmaga": 6634,
      "muzakır": 6635,
      "medal": 6636,
      "xarakterlı": 6637,
      "imperator": 6638,
      "sahbanuların": 6639,
      "atropatenanın": 6640,
      "ısləyən": 6641,
      "yuxarıda": 6642,
      "под": 6643,
      "ред": 6644,
      "təbəq": 6645,
      "dəftər": 6646,
      "əlyazmalar": 6647,
      "cəzırə": 6648,
      "goycə": 6649,
      "mınını": 6650,
      "suleymanın": 6651,
      "kecırdıyı": 6652,
      "qəhrəmanlıq": 6653,
      "bayat": 6654,
      "olurdular": 6655,
      "səyy": 6656,
      "vəzıfəsı": 6657,
      "səhrıstanı": 6658,
      "saqqal": 6659,
      "yolunun": 6660,
      "dıvanı": 6661,
      "olkənı": 6662,
      "bolgədəkı": 6663,
      "parcalan": 6664,
      "teatrının": 6665,
      "konfransının": 6666,
      "kərımov": 6667,
      "росс": 6668,
      "mubarızəsı": 6669,
      "mıqdarda": 6670,
      "məyıb": 6671,
      "janr": 6672,
      "janrı": 6673,
      "nuxa": 6674,
      "gorunduyu": 6675,
      "gulustanı": 6676,
      "yaqut": 6677,
      "bolgənı": 6678,
      "qızılbaslar": 6679,
      "nusxə": 6680,
      "hacınskı": 6681,
      "hummət": 6682,
      "hədəf": 6683,
      "əxlaq": 6684,
      "kompozısıya": 6685,
      "kompozısıyalar": 6686,
      "komıtələrının": 6687,
      "isfahana": 6688,
      "rovsən": 6689,
      "ardından": 6690,
      "ləyır": 6691,
      "ozunəməxsus": 6692,
      "olduqca": 6693,
      "yuksəlısı": 6694,
      "азербаиджана": 6695,
      "азербаиджане": 6696,
      "guzəs": 6697,
      "anlayısı": 6698,
      "mıfolog": 6699,
      "texnologıyası": 6700,
      "xususıyyətlərını": 6701,
      "heykəltaras": 6702,
      "cəsarət": 6703,
      "yazıcısı": 6704,
      "tədqıqatcıların": 6705,
      "maraqlıdır": 6706,
      "ingıltər": 6707,
      "skıflər": 6708,
      "poezıyasının": 6709,
      "rejımın": 6710,
      "idarə": 6711,
      "vəsaıt": 6712,
      "vəkılov": 6713,
      "mənafe": 6714,
      "avıasıya": 6715,
      "yəhu": 6716,
      "xarakterıkdır": 6717,
      "zeynalab": 6718,
      "bıcar": 6719,
      "ıxrac": 6720,
      "كثر": 6721,
      "dəhsət": 6722,
      "təhmasıbın": 6723,
      "mukafatlan": 6724,
      "بحر": 6725,
      "kıtabxanası": 6726,
      "quruculugu": 6727,
      "kəsfıyyat": 6728,
      "xeyrınə": 6729,
      "instıtutu": 6730,
      "tahır": 6731,
      "ovalıgına": 6732,
      "təxrıbat": 6733,
      "təsəvvur": 6734,
      "adurbada": 6735,
      "tohfə": 6736,
      "vladımır": 6737,
      "etıqad": 6738,
      "sımonovıcın": 6739,
      "enerjı": 6740,
      "burhanəddın": 6741,
      "hududu": 6742,
      "stepan": 6743,
      "sohrət": 6744,
      "london": 6745,
      "aparıcı": 6746,
      "burjua": 6747,
      "qoruyub": 6748,
      "اردبيل": 6749,
      "kırmansah": 6750,
      "makedonıyalı": 6751,
      "bombar": 6752,
      "bohran": 6753,
      "ləqəb": 6754,
      "encyclop": 6755,
      "ıstıntaq": 6756,
      "sorəyel": 6757,
      "fovqəladə": 6758,
      "qarapapaq": 6759,
      "ərzıncan": 6760,
      "gızıroglu": 6761,
      "дагест": 6762,
      "porucık": 6763,
      "floor": 6764,
      "namızəd": 6765,
      "wıllem": 6766,
      "təchız": 6767,
      "sərnısın": 6768,
      "sevastopol": 6769,
      "115": 6770,
      "112": 6771,
      "3000": 6772,
      "61": 6773,
      "73": 6774,
      "83": 6775,
      "85": 6776,
      "87": 6777,
      "92": 6778,
      "995": 6779,
      "baq": 6780,
      "bəsındə": 6781,
      "bolunurdu": 6782,
      "bıbı": 6783,
      "bəsır": 6784,
      "belı": 6785,
      "cını": 6786,
      "culu": 6787,
      "dos": 6788,
      "fəs": 6789,
      "feld": 6790,
      "gedır": 6791,
      "gedırdı": 6792,
      "getmə": 6793,
      "həs": 6794,
      "haf": 6795,
      "ks": 6796,
      "ket": 6797,
      "kılər": 6798,
      "kra": 6799,
      "kvan": 6800,
      "kvar": 6801,
      "lemı": 6802,
      "lırık": 6803,
      "mıy": 6804,
      "maların": 6805,
      "nan": 6806,
      "ney": 6807,
      "oab": 6808,
      "olık": 6809,
      "pə": 6810,
      "pəm": 6811,
      "pəh": 6812,
      "pulu": 6813,
      "qanın": 6814,
      "rık": 6815,
      "ratı": 6816,
      "rənən": 6817,
      "sındə": 6818,
      "sını": 6819,
      "sox": 6820,
      "sada": 6821,
      "th": 6822,
      "tacı": 6823,
      "trak": 6824,
      "utun": 6825,
      "ulərək": 6826,
      "valı": 6827,
      "xul": 6828,
      "xks": 6829,
      "yy": 6830,
      "yla": 6831,
      "yav": 6832,
      "zdə": 6833,
      "əbə": 6834,
      "əkıncı": 6835,
      "бан": 6836,
      "ед": 6837,
      "ри": 6838,
      "сов": 6839,
      "та": 6840,
      "тор": 6841,
      "ха": 6842,
      "ու": 6843,
      "اول": 6844,
      "بي": 6845,
      "بی": 6846,
      "تفل": 6847,
      "جز": 6848,
      "جم": 6849,
      "جار": 6850,
      "درب": 6851,
      "زن": 6852,
      "سلا": 6853,
      "شی": 6854,
      "مس": 6855,
      "هذا": 6856,
      "وار": 6857,
      "ولا": 6858,
      "یل": 6859,
      "ıntı": 6860,
      "ınformasıya": 6861,
      "arat": 6862,
      "aranın": 6863,
      "ıldıgı": 6864,
      "ılməz": 6865,
      "ırmı": 6866,
      "ısey": 6867,
      "asp": 6868,
      "mədə": 6869,
      "məhər": 6870,
      "məbəd": 6871,
      "unas": 6872,
      "ayan": 6873,
      "ayıb": 6874,
      "aypara": 6875,
      "lıtov": 6876,
      "lərıylə": 6877,
      "əsl": 6878,
      "əslən": 6879,
      "əsarət": 6880,
      "alay": 6881,
      "allar": 6882,
      "aldılar": 6883,
      "ustə": 6884,
      "usmı": 6885,
      "olkəs": 6886,
      "dırcəl": 6887,
      "dırmaga": 6888,
      "ərbər": 6889,
      "ovlıya": 6890,
      "atık": 6891,
      "atları": 6892,
      "atların": 6893,
      "azərbaycanının": 6894,
      "azərbaycanla": 6895,
      "azərbaycanlının": 6896,
      "aqment": 6897,
      "dılmısdır": 6898,
      "dıllərındən": 6899,
      "etmır": 6900,
      "etdıyınə": 6901,
      "təkı": 6902,
      "abdal": 6903,
      "səəd": 6904,
      "mudaxıl": 6905,
      "sıv": 6906,
      "sıkəs": 6907,
      "sıgına": 6908,
      "ahur": 6909,
      "agst": 6910,
      "amul": 6911,
      "bırındən": 6912,
      "buk": 6913,
      "buy": 6914,
      "məna": 6915,
      "məntıq": 6916,
      "mənbəyı": 6917,
      "bəx": 6918,
      "bəyaz": 6919,
      "ləməyə": 6920,
      "cuxur": 6921,
      "axan": 6922,
      "ene": 6923,
      "enader": 6924,
      "musıb": 6925,
      "musbət": 6926,
      "musayev": 6927,
      "tanı": 6928,
      "oyrənən": 6929,
      "osu": 6930,
      "qəzə": 6931,
      "qəbılə": 6932,
      "edılməyə": 6933,
      "basq": 6934,
      "bascılar": 6935,
      "baslamaq": 6936,
      "xanovun": 6937,
      "xanlıgında": 6938,
      "ıkon": 6939,
      "ıblər": 6940,
      "ıbadət": 6941,
      "evlərı": 6942,
      "sahlar": 6943,
      "sahəsı": 6944,
      "sahılı": 6945,
      "sahnamə": 6946,
      "sona": 6947,
      "sonda": 6948,
      "ozan": 6949,
      "ozlərının": 6950,
      "tərzı": 6951,
      "ıldəkı": 6952,
      "yarpaq": 6953,
      "2019": 6954,
      "sərtı": 6955,
      "sərqə": 6956,
      "1816": 6957,
      "1880": 6958,
      "1878": 6959,
      "1832": 6960,
      "yerdən": 6961,
      "yerlərə": 6962,
      "yerlərdən": 6963,
      "yeraltı": 6964,
      "durur": 6965,
      "qazılar": 6966,
      "ıcrası": 6967,
      "dovrumu": 6968,
      "gıbasar": 6969,
      "lıqraf": 6970,
      "yandır": 6971,
      "yandırılır": 6972,
      "dovlətını": 6973,
      "acıldı": 6974,
      "gunah": 6975,
      "guney": 6976,
      "fərhad": 6977,
      "oks": 6978,
      "isa": 6979,
      "alarla": 6980,
      "qalırdı": 6981,
      "yazan": 6982,
      "bəyım": 6983,
      "ləsməsı": 6984,
      "xalqa": 6985,
      "ıllərının": 6986,
      "eks": 6987,
      "ıstıl": 6988,
      "ıstən": 6989,
      "ıstınad": 6990,
      "mınlərlə": 6991,
      "uktur": 6992,
      "kəndını": 6993,
      "kəndlərının": 6994,
      "suyu": 6995,
      "əsaslarını": 6996,
      "ıttı": 6997,
      "ıtkın": 6998,
      "mayı": 6999,
      "yasar": 7000,
      "yasıl": 7001,
      "gərrus": 7002,
      "bılır": 7003,
      "bılısı": 7004,
      "bılav": 7005,
      "bılırlər": 7006,
      "adıgozəl": 7007,
      "bolusdur": 7008,
      "1730": 7009,
      "bagı": 7010,
      "artdı": 7011,
      "bulbul": 7012,
      "sovetın": 7013,
      "gəlmə": 7014,
      "gəlısı": 7015,
      "gostərılırdı": 7016,
      "cənlıb": 7017,
      "mətnı": 7018,
      "gucu": 7019,
      "guya": 7020,
      "ortasında": 7021,
      "rıhab": 7022,
      "1524": 7023,
      "səfərə": 7024,
      "maldar": 7025,
      "cıxmıs": 7026,
      "sarkıs": 7027,
      "bunyad": 7028,
      "yaxından": 7029,
      "hədıyyə": 7030,
      "qədərkı": 7031,
      "lasma": 7032,
      "cənuba": 7033,
      "zərər": 7034,
      "zərda": 7035,
      "desık": 7036,
      "ıstıfadəsı": 7037,
      "verılıb": 7038,
      "1225": 7039,
      "stelan": 7040,
      "stolı": 7041,
      "həyə": 7042,
      "albanları": 7043,
      "torpagının": 7044,
      "səfəvıyyə": 7045,
      "doyusdən": 7046,
      "zəngıbasar": 7047,
      "seymın": 7048,
      "konsep": 7049,
      "bıtərəf": 7050,
      "qurd": 7051,
      "qızgın": 7052,
      "samb": 7053,
      "samar": 7054,
      "bolgəsını": 7055,
      "qayıd": 7056,
      "əhalısınə": 7057,
      "prof": 7058,
      "prot": 7059,
      "prolet": 7060,
      "səhıyyə": 7061,
      "termın": 7062,
      "kocurulməsınə": 7063,
      "təkmıl": 7064,
      "ımperıyasından": 7065,
      "arxıye": 7066,
      "sayılan": 7067,
      "əlaqəsı": 7068,
      "baslamıs": 7069,
      "baslamısdı": 7070,
      "saxla": 7071,
      "ısgalcı": 7072,
      "məclısı": 7073,
      "secılmısdı": 7074,
      "tug": 7075,
      "edıldıkdən": 7076,
      "təntən": 7077,
      "tənzım": 7078,
      "pasayev": 7079,
      "hakımıyyətdə": 7080,
      "təbrızlı": 7081,
      "yayılmısdı": 7082,
      "sızlık": 7083,
      "omıya": 7084,
      "ıstəmırdı": 7085,
      "kıtabda": 7086,
      "abbasov": 7087,
      "kəndlılərə": 7088,
      "dekabrında": 7089,
      "1903": 7090,
      "quvvət": 7091,
      "səbəbdən": 7092,
      "qarsısına": 7093,
      "muqavıləsınə": 7094,
      "cəkılməsı": 7095,
      "yuru": 7096,
      "ərazılərının": 7097,
      "sahıblərı": 7098,
      "məzdən": 7099,
      "сто": 7100,
      "sımaldan": 7101,
      "aılədən": 7102,
      "zaqafqazıyanın": 7103,
      "анов": 7104,
      "buradakı": 7105,
      "vəzıyyətdən": 7106,
      "skıy": 7107,
      "skel": 7108,
      "bıldırmıs": 7109,
      "qərbındə": 7110,
      "huseynzadə": 7111,
      "сква": 7112,
      "ских": 7113,
      "cıngız": 7114,
      "bılərdılər": 7115,
      "eynıadlı": 7116,
      "muəllım": 7117,
      "rəqqas": 7118,
      "martında": 7119,
      "dənızın": 7120,
      "sımvolun": 7121,
      "cevrılmıs": 7122,
      "sarayların": 7123,
      "susanın": 7124,
      "ustunə": 7125,
      "fərqı": 7126,
      "məsələlər": 7127,
      "qrenader": 7128,
      "məsələsının": 7129,
      "bolgələrınə": 7130,
      "1973": 7131,
      "1978": 7132,
      "muəllıfın": 7133,
      "boru": 7134,
      "1965": 7135,
      "dərbəndə": 7136,
      "1952": 7137,
      "formaları": 7138,
      "واب": 7139,
      "azıx": 7140,
      "təxırə": 7141,
      "avropada": 7142,
      "təsırını": 7143,
      "təsırınə": 7144,
      "ورثان": 7145,
      "andoab": 7146,
      "luklə": 7147,
      "sahbanuluq": 7148,
      "mıllətlər": 7149,
      "fərmana": 7150,
      "fərmanı": 7151,
      "xıdmətə": 7152,
      "əzız": 7153,
      "1892": 7154,
      "1896": 7155,
      "fılmdə": 7156,
      "edəcək": 7157,
      "xacdaslarının": 7158,
      "fevralında": 7159,
      "ınqılabından": 7160,
      "qubernıya": 7161,
      "demoqrafık": 7162,
      "məlıksah": 7163,
      "ımzalanan": 7164,
      "ımzalandı": 7165,
      "bızans": 7166,
      "odənıl": 7167,
      "bacısı": 7168,
      "bacarıq": 7169,
      "daırələr": 7170,
      "musdulər": 7171,
      "hıssədə": 7172,
      "konstıtusıyasının": 7173,
      "əmırov": 7174,
      "fəhlələrı": 7175,
      "danısıqları": 7176,
      "xıdmətının": 7177,
      "orqanlarının": 7178,
      "sufılər": 7179,
      "varıant": 7180,
      "xordad": 7181,
      "برز": 7182,
      "təsərrufatında": 7183,
      "formalasmısdır": 7184,
      "məktəbının": 7185,
      "məktəblərdə": 7186,
      "ehtır": 7187,
      "ском": 7188,
      "mez": 7189,
      "nısan": 7190,
      "والذي": 7191,
      "ıslamdan": 7192,
      "tıkılmısdır": 7193,
      "muvəffə": 7194,
      "sırvansahların": 7195,
      "mohsun": 7196,
      "layıhə": 7197,
      "sərtlərı": 7198,
      "sərtlərınə": 7199,
      "sarıqamıs": 7200,
      "kocurulənlərın": 7201,
      "вои": 7202,
      "əlyazma": 7203,
      "əlyazmaları": 7204,
      "danısan": 7205,
      "yerləsdırıldı": 7206,
      "yerləsdırılən": 7207,
      "deportasıyasının": 7208,
      "sıstemının": 7209,
      "sıstemındə": 7210,
      "sabıt": 7211,
      "parlamentı": 7212,
      "maması": 7213,
      "yaradıcılıq": 7214,
      "prosesındə": 7215,
      "cılıyı": 7216,
      "nəzarətınə": 7217,
      "tətbıqı": 7218,
      "ıstehsalının": 7219,
      "deputatları": 7220,
      "razılıq": 7221,
      "təzahur": 7222,
      "məntəqələrı": 7223,
      "cılddə": 7224,
      "karvansarası": 7225,
      "dıvarları": 7226,
      "tapsırılmısdı": 7227,
      "qəmərlı": 7228,
      "məscıdlər": 7229,
      "oynayıb": 7230,
      "ıdeolog": 7231,
      "gorunur": 7232,
      "poeması": 7233,
      "butovlu": 7234,
      "butovluyu": 7235,
      "sahələrındə": 7236,
      "rəsulzadənın": 7237,
      "səvıyyəsındə": 7238,
      "unıversıtetı": 7239,
      "bəllı": 7240,
      "fəlsəf": 7241,
      "fəlsəfə": 7242,
      "yayıldıgı": 7243,
      "duzəldılmıs": 7244,
      "fraqment": 7245,
      "əxbar": 7246,
      "statusu": 7247,
      "tərəkə": 7248,
      "cəfərov": 7249,
      "səttar": 7250,
      "qapısı": 7251,
      "bələdıyyə": 7252,
      "албан": 7253,
      "ılıyı": 7254,
      "yazıcılar": 7255,
      "ənənələrını": 7256,
      "qarnızon": 7257,
      "qarnızonun": 7258,
      "salmasdan": 7259,
      "corək": 7260,
      "nerses": 7261,
      "ıstərsə": 7262,
      "qəbrın": 7263,
      "narahatlıq": 7264,
      "kaspı": 7265,
      "qrafık": 7266,
      "musavat": 7267,
      "turkcəsı": 7268,
      "təhmasıb": 7269,
      "sacılər": 7270,
      "təbərıstan": 7271,
      "zəıfləməsı": 7272,
      "hava": 7273,
      "москва": 7274,
      "qosununun": 7275,
      "mahnılar": 7276,
      "cabbar": 7277,
      "taxıl": 7278,
      "həcm": 7279,
      "antropolojı": 7280,
      "təzyıqı": 7281,
      "ıxtıyar": 7282,
      "nusxəsı": 7283,
      "tagıyevın": 7284,
      "pyotrun": 7285,
      "bogaz": 7286,
      "kərbəl": 7287,
      "nazık": 7288,
      "populyar": 7289,
      "xutbə": 7290,
      "xanədan": 7291,
      "vurgulanırdı": 7292,
      "مشه": 7293,
      "dadasov": 7294,
      "sərəncam": 7295,
      "مدنها": 7296,
      "hundurluyun": 7297,
      "dostluq": 7298,
      "lazarev": 7299,
      "alınıb": 7300,
      "ıclasda": 7301,
      "dovlətcılıyının": 7302,
      "mutəllıbov": 7303,
      "ولایت": 7304,
      "televızıya": 7305,
      "doktoru": 7306,
      "fayda": 7307,
      "govhər": 7308,
      "qətlıam": 7309,
      "plenumunda": 7310,
      "mazandaran": 7311,
      "xəlvətılık": 7312,
      "əməkdaslıq": 7313,
      "sucaət": 7314,
      "togrul": 7315,
      "xəndək": 7316,
      "xarəzm": 7317,
      "تبريز": 7318,
      "arvadı": 7319,
      "metallurgıya": 7320,
      "getdıkcə": 7321,
      "iosıf": 7322,
      "mln": 7323,
      "potensı": 7324,
      "sabran": 7325,
      "xələf": 7326,
      "يحيط": 7327,
      "sahənsah": 7328,
      "الابواب": 7329,
      "qorbacovun": 7330,
      "россии": 7331,
      "yəhudılər": 7332,
      "dəhsətlı": 7333,
      "adurbadaqan": 7334,
      "bombardman": 7335,
      "mıyandoab": 7336,
      "pəmbək": 7337,
      "совет": 7338,
      "məhərrəm": 7339,
      "agstafa": 7340,
      "cənlıbel": 7341,
      "arxıyepıskop": 7342,
      "xordadbeh": 7343,
      "muvəffəq": 7344,
      "120": 7345,
      "71": 7346,
      "93": 7347,
      "acan": 7348,
      "aıdı": 7349,
      "by": 7350,
      "bınə": 7351,
      "bəst": 7352,
      "cx": 7353,
      "cey": 7354,
      "cad": 7355,
      "cəsı": 7356,
      "calan": 7357,
      "cəsınə": 7358,
      "cələb": 7359,
      "dlı": 7360,
      "dısı": 7361,
      "devr": 7362,
      "dolu": 7363,
      "ef": 7364,
      "edam": 7365,
      "fu": 7366,
      "gol": 7367,
      "get": 7368,
      "gərək": 7369,
      "genı": 7370,
      "gbt": 7371,
      "habs": 7372,
      "kanı": 7373,
      "kəsən": 7374,
      "lyar": 7375,
      "lgbt": 7376,
      "medı": 7377,
      "malarının": 7378,
      "naq": 7379,
      "nıc": 7380,
      "nıkı": 7381,
      "nıyə": 7382,
      "nob": 7383,
      "pıy": 7384,
      "pılə": 7385,
      "pax": 7386,
      "pərdə": 7387,
      "pıllə": 7388,
      "qum": 7389,
      "qran": 7390,
      "qəsrı": 7391,
      "rıd": 7392,
      "rzaq": 7393,
      "rahat": 7394,
      "ratıon": 7395,
      "rsfsr": 7396,
      "sok": 7397,
      "tərb": 7398,
      "tet": 7399,
      "tak": 7400,
      "tmək": 7401,
      "tuk": 7402,
      "talan": 7403,
      "tbılısı": 7404,
      "vay": 7405,
      "vec": 7406,
      "vıc": 7407,
      "vərdə": 7408,
      "vacaq": 7409,
      "war": 7410,
      "xı": 7411,
      "xəlıf": 7412,
      "yayı": 7413,
      "zo": 7414,
      "zu": 7415,
      "zov": 7416,
      "zındə": 7417,
      "əq": 7418,
      "ле": 7419,
      "мен": 7420,
      "од": 7421,
      "су": 7422,
      "ча": 7423,
      "ادر": 7424,
      "ايجان": 7425,
      "اخر": 7426,
      "بان": 7427,
      "جا": 7428,
      "جر": 7429,
      "جل": 7430,
      "جستان": 7431,
      "خوان": 7432,
      "دی": 7433,
      "دار": 7434,
      "ذه": 7435,
      "سب": 7436,
      "عش": 7437,
      "عرا": 7438,
      "غرب": 7439,
      "فر": 7440,
      "فارس": 7441,
      "قال": 7442,
      "لك": 7443,
      "لما": 7444,
      "مرا": 7445,
      "مما": 7446,
      "وب": 7447,
      "وش": 7448,
      "وك": 7449,
      "وفي": 7450,
      "چه": 7451,
      "کر": 7452,
      "کان": 7453,
      "یك": 7454,
      "​​": 7455,
      "aralarında": 7456,
      "arranın": 7457,
      "ılhaq": 7458,
      "ılzadə": 7459,
      "ılmasını": 7460,
      "ıramı": 7461,
      "ısdə": 7462,
      "ıslərını": 7463,
      "ıssor": 7464,
      "ıslav": 7465,
      "ıspəh": 7466,
      "asen": 7467,
      "assurıya": 7468,
      "məcıd": 7469,
      "mələk": 7470,
      "unvan": 7471,
      "lıd": 7472,
      "əsə": 7473,
      "azan": 7474,
      "azlıq": 7475,
      "azalt": 7476,
      "alma": 7477,
      "əndın": 7478,
      "əndıyev": 7479,
      "ıyı": 7480,
      "urək": 7481,
      "ətlı": 7482,
      "ətındən": 7483,
      "olmur": 7484,
      "olmayıb": 7485,
      "olmasa": 7486,
      "dırmas": 7487,
      "kıt": 7488,
      "cıb": 7489,
      "ovskı": 7490,
      "atının": 7491,
      "atası": 7492,
      "atalar": 7493,
      "canısının": 7494,
      "canaxır": 7495,
      "azərbaycandıllı": 7496,
      "əlıs": 7497,
      "ələv": 7498,
      "əlkə": 7499,
      "orda": 7500,
      "orator": 7501,
      "aqlı": 7502,
      "dılməsı": 7503,
      "dılması": 7504,
      "ett": 7505,
      "təlıq": 7506,
      "təbın": 7507,
      "təcəs": 7508,
      "təkəlı": 7509,
      "aban": 7510,
      "səb": 7511,
      "səma": 7512,
      "səbus": 7513,
      "mukəm": 7514,
      "sıvıl": 7515,
      "asıon": 7516,
      "asıtə": 7517,
      "asıgı": 7518,
      "agını": 7519,
      "agayı": 7520,
      "amaq": 7521,
      "ındakı": 7522,
      "əmırlər": 7523,
      "bud": 7524,
      "buxar": 7525,
      "mənalı": 7526,
      "mustəs": 7527,
      "musadır": 7528,
      "dum": 7529,
      "lərıdır": 7530,
      "oyunun": 7531,
      "lut": 7532,
      "lugunu": 7533,
      "ılərkən": 7534,
      "cəd": 7535,
      "cəhal": 7536,
      "qav": 7537,
      "edılməsındə": 7538,
      "basının": 7539,
      "baslat": 7540,
      "lac": 7541,
      "lap": 7542,
      "qaram": 7543,
      "qardasları": 7544,
      "ızmın": 7545,
      "raj": 7546,
      "rada": 7547,
      "uca": 7548,
      "ucları": 7549,
      "uzu": 7550,
      "xanının": 7551,
      "xanlıgını": 7552,
      "məsgu": 7553,
      "ecmı": 7554,
      "əhval": 7555,
      "evan": 7556,
      "lıyındən": 7557,
      "aka": 7558,
      "aktıv": 7559,
      "sahıllərındə": 7560,
      "sahtaxt": 7561,
      "məktu": 7562,
      "ısıgı": 7563,
      "kəngər": 7564,
      "mamısdı": 7565,
      "malıyy": 7566,
      "tərtər": 7567,
      "turızm": 7568,
      "russı": 7569,
      "ıqtı": 7570,
      "2024": 7571,
      "2022": 7572,
      "nəfərə": 7573,
      "tarıxdə": 7574,
      "1840": 7575,
      "avadan": 7576,
      "dovrlərə": 7577,
      "olunmasına": 7578,
      "olanda": 7579,
      "olanlar": 7580,
      "umental": 7581,
      "kecər": 7582,
      "oxsay": 7583,
      "irəm": 7584,
      "iranı": 7585,
      "acılan": 7586,
      "gundən": 7587,
      "iskən": 7588,
      "qalaya": 7589,
      "qaladan": 7590,
      "qalakənd": 7591,
      "elının": 7592,
      "elxanı": 7593,
      "yazıs": 7594,
      "yazırdılar": 7595,
      "ılarının": 7596,
      "bəyən": 7597,
      "ekran": 7598,
      "ıstlər": 7599,
      "ıstlərı": 7600,
      "alımı": 7601,
      "alızm": 7602,
      "kəndlərdə": 7603,
      "mərdan": 7604,
      "məram": 7605,
      "bərzənd": 7606,
      "muhənd": 7607,
      "sıyə": 7608,
      "sıyaları": 7609,
      "sıyasına": 7610,
      "dusub": 7611,
      "bakıxanovun": 7612,
      "mayında": 7613,
      "səhərındən": 7614,
      "yəz": 7615,
      "varlıq": 7616,
      "dastanın": 7617,
      "daskəsən": 7618,
      "burokrat": 7619,
      "mıllıyət": 7620,
      "bılsın": 7621,
      "bolu": 7622,
      "qudr": 7623,
      "1780": 7624,
      "1747": 7625,
      "1796": 7626,
      "baglanan": 7627,
      "carlılar": 7628,
      "kecırırdı": 7629,
      "qarabaglasdırma": 7630,
      "hakımlərı": 7631,
      "artsax": 7632,
      "artmasına": 7633,
      "ermənıstanla": 7634,
      "sovetlərının": 7635,
      "gəlmək": 7636,
      "gəlmısdı": 7637,
      "gəlməsınə": 7638,
      "gəldıkdə": 7639,
      "lənmıs": 7640,
      "masıyla": 7641,
      "əlızadə": 7642,
      "gostərmıs": 7643,
      "gostərısı": 7644,
      "kıno": 7645,
      "mətlı": 7646,
      "sənı": 7647,
      "1578": 7648,
      "kocməyə": 7649,
      "səfərbər": 7650,
      "cıxıb": 7651,
      "cıxaraq": 7652,
      "cıxmaga": 7653,
      "mırz": 7654,
      "sarab": 7655,
      "lasa": 7656,
      "lasmıs": 7657,
      "cənubdakı": 7658,
      "dunu": 7659,
      "dedı": 7660,
      "osmanlıların": 7661,
      "ıstıfadəsınə": 7662,
      "132": 7663,
      "136": 7664,
      "muxalı": 7665,
      "verılməlı": 7666,
      "butunluklə": 7667,
      "əkbər": 7668,
      "dıgərı": 7669,
      "stıl": 7670,
      "beləcə": 7671,
      "albanların": 7672,
      "doyuslər": 7673,
      "doyuslərı": 7674,
      "nemət": 7675,
      "layırlar": 7676,
      "kecırıldıyı": 7677,
      "kısılərın": 7678,
      "ıfac": 7679,
      "qarsıdur": 7680,
      "zənı": 7681,
      "hazırlas": 7682,
      "seymı": 7683,
      "seyfə": 7684,
      "yaradılan": 7685,
      "konkr": 7686,
      "naxcıvandan": 7687,
      "tapmıs": 7688,
      "tutmaq": 7689,
      "tutdugu": 7690,
      "qoyurdu": 7691,
      "saman": 7692,
      "həyatını": 7693,
      "qurulusunun": 7694,
      "ayrıldı": 7695,
      "ayrılması": 7696,
      "alınan": 7697,
      "topl": 7698,
      "kocuruldu": 7699,
      "kocurulmusdur": 7700,
      "kocurulməsını": 7701,
      "kocurulmənın": 7702,
      "qərarının": 7703,
      "torpaqların": 7704,
      "gəncəvı": 7705,
      "2004": 7706,
      "cəkır": 7707,
      "qəzalarında": 7708,
      "deyləm": 7709,
      "sayəsındə": 7710,
      "sayca": 7711,
      "hıssəsınə": 7712,
      "aparılır": 7713,
      "kəsıl": 7714,
      "xaclılara": 7715,
      "əlaqələrı": 7716,
      "əfras": 7717,
      "əfəndıyev": 7718,
      "saxta": 7719,
      "ısgalını": 7720,
      "gull": 7721,
      "guləs": 7722,
      "gullə": 7723,
      "oqtay": 7724,
      "sultanlıgının": 7725,
      "gondərır": 7726,
      "gondərıb": 7727,
      "secılmısdır": 7728,
      "secılən": 7729,
      "moısey": 7730,
      "monumental": 7731,
      "tuman": 7732,
      "cəla": 7733,
      "zamanlardan": 7734,
      "ınkısafının": 7735,
      "inc": 7736,
      "qubaya": 7737,
      "اران": 7738,
      "hakımıyyətdən": 7739,
      "həsənov": 7740,
      "həsənəlı": 7741,
      "polkun": 7742,
      "tədrıs": 7743,
      "yaranır": 7744,
      "kərkuk": 7745,
      "bırləsmıs": 7746,
      "bırləsmək": 7747,
      "bırləsdırıl": 7748,
      "bırləsdırıldı": 7749,
      "catan": 7750,
      "catdır": 7751,
      "catdırmaq": 7752,
      "həllı": 7753,
      "ədəbıyyatına": 7754,
      "kıtabxana": 7755,
      "novbədən": 7756,
      "mulah": 7757,
      "nazırının": 7758,
      "payızı": 7759,
      "1901": 7760,
      "quvvələrınə": 7761,
      "səbəblərı": 7762,
      "muqavılənı": 7763,
      "aslanı": 7764,
      "mark": 7765,
      "cəkılməyə": 7766,
      "ordubadı": 7767,
      "planlarını": 7768,
      "hadrut": 7769,
      "qrupları": 7770,
      "qrupunun": 7771,
      "məzhəb": 7772,
      "sıntez": 7773,
      "islamı": 7774,
      "oktyabrında": 7775,
      "yuklə": 7776,
      "sərhədlərındə": 7777,
      "vəzıyyətın": 7778,
      "gətırdı": 7779,
      "secı": 7780,
      "seırlər": 7781,
      "dagıstanı": 7782,
      "qərbə": 7783,
      "qətl": 7784,
      "sozlər": 7785,
      "daırəsı": 7786,
      "daırəsınə": 7787,
      "ımzala": 7788,
      "tələblər": 7789,
      "baslanmısdır": 7790,
      "ənənəsınə": 7791,
      "usyancılar": 7792,
      "nıg": 7793,
      "otlaq": 7794,
      "gətırən": 7795,
      "bınaların": 7796,
      "drık": 7797,
      "yungul": 7798,
      "asıqları": 7799,
      "muddətındə": 7800,
      "musıqısının": 7801,
      "səxsın": 7802,
      "fərqləndır": 7803,
      "hadısələrlə": 7804,
      "məsələnın": 7805,
      "məsələsını": 7806,
      "bolgədən": 7807,
      "bolgələrə": 7808,
      "1976": 7809,
      "muəllıflər": 7810,
      "huquqları": 7811,
      "dərbəndın": 7812,
      "ایشان": 7813,
      "olunduqdan": 7814,
      "generalları": 7815,
      "qatar": 7816,
      "qatarı": 7817,
      "tutulmus": 7818,
      "tutulmusdu": 7819,
      "1955": 7820,
      "əyalətə": 7821,
      "aleksey": 7822,
      "hərəkata": 7823,
      "hərəkatını": 7824,
      "aıləsının": 7825,
      "nəsx": 7826,
      "pod": 7827,
      "zulmun": 7828,
      "təskılatın": 7829,
      "təskılatların": 7830,
      "tətılə": 7831,
      "fevralın": 7832,
      "mazlıgı": 7833,
      "tanınması": 7834,
      "sahbanusu": 7835,
      "samaxını": 7836,
      "gırıs": 7837,
      "qabıl": 7838,
      "fərmanda": 7839,
      "cəlalılərın": 7840,
      "qazandı": 7841,
      "1891": 7842,
      "əhəmıyyətını": 7843,
      "adamlar": 7844,
      "fılmlərı": 7845,
      "mehmet": 7846,
      "naxıslarla": 7847,
      "qıyas": 7848,
      "yetırıl": 7849,
      "ugrat": 7850,
      "bənzə": 7851,
      "cıxısları": 7852,
      "bacar": 7853,
      "dayanan": 7854,
      "numunələrının": 7855,
      "ент": 7856,
      "ении": 7857,
      "ения": 7858,
      "edıblər": 7859,
      "sənayesı": 7860,
      "meydanından": 7861,
      "samaxıda": 7862,
      "اذرباذ": 7863,
      "اذربايجان": 7864,
      "ləsdırılmıs": 7865,
      "saxlanması": 7866,
      "cagırılması": 7867,
      "goturul": 7868,
      "təklıfını": 7869,
      "usaqlar": 7870,
      "usaqları": 7871,
      "həbıbı": 7872,
      "yurusə": 7873,
      "yuruslər": 7874,
      "yuruslərı": 7875,
      "cografıy": 7876,
      "sakınlər": 7877,
      "təsərrufatın": 7878,
      "məktəblər": 7879,
      "calısırdılar": 7880,
      "xarakterı": 7881,
      "xarakterızə": 7882,
      "ıslamı": 7883,
      "tıkılməsı": 7884,
      "lasdırmaq": 7885,
      "moskvada": 7886,
      "رود": 7887,
      "dınını": 7888,
      "dastanı": 7889,
      "dastanları": 7890,
      "yasamısdır": 7891,
      "kocurmək": 7892,
      "malarını": 7893,
      "zərbələr": 7894,
      "kənarında": 7895,
      "axırıncı": 7896,
      "dusmənı": 7897,
      "ıstəyır": 7898,
      "ıstəyını": 7899,
      "muzakırələrdən": 7900,
      "aturpat": 7901,
      "mahalının": 7902,
      "mahalında": 7903,
      "mahalına": 7904,
      "əməlıyyatının": 7905,
      "bazar": 7906,
      "يلان": 7907,
      "bəhlul": 7908,
      "aleksand": 7909,
      "qəhrəmanları": 7910,
      "dırıcı": 7911,
      "prosesının": 7912,
      "ıncəsənətının": 7913,
      "qıda": 7914,
      "saqqız": 7915,
      "yolunu": 7916,
      "ımkanları": 7917,
      "dərınlıyı": 7918,
      "subutu": 7919,
      "zəngınləsdır": 7920,
      "muqavıləyə": 7921,
      "cətınlık": 7922,
      "padsahın": 7923,
      "horuk": 7924,
      "yarımad": 7925,
      "rəqslər": 7926,
      "teatrın": 7927,
      "dagıt": 7928,
      "dagıdılmıs": 7929,
      "dasnaklar": 7930,
      "dasnakların": 7931,
      "isgəndərın": 7932,
      "1603": 7933,
      "rəssamlar": 7934,
      "mubarızədə": 7935,
      "1866": 7936,
      "sumqayıt": 7937,
      "باشد": 7938,
      "ıcazəsız": 7939,
      "korpusu": 7940,
      "qaynaqlarda": 7941,
      "ıdeolojı": 7942,
      "teymurun": 7943,
      "təhlukəsızlıyını": 7944,
      "oynadı": 7945,
      "sahələrın": 7946,
      "berlın": 7947,
      "vadılər": 7948,
      "dıqqətını": 7949,
      "cavansırın": 7950,
      "кавказскои": 7951,
      "fərqlənırdı": 7952,
      "zulfun": 7953,
      "xalcacılıq": 7954,
      "yayılmaga": 7955,
      "rejıssor": 7956,
      "status": 7957,
      "problemlər": 7958,
      "astron": 7959,
      "məısətı": 7960,
      "dıalektı": 7961,
      "uzaqlas": 7962,
      "genıslənməsı": 7963,
      "faktlar": 7964,
      "kosa": 7965,
      "kosmık": 7966,
      "məmuru": 7967,
      "təmızləmə": 7968,
      "ləyırdı": 7969,
      "yasamaqda": 7970,
      "bələd": 7971,
      "qənızadə": 7972,
      "xasməmmədov": 7973,
      "bucaqlı": 7974,
      "federasıyasının": 7975,
      "belk": 7976,
      "həvarı": 7977,
      "кон": 7978,
      "tarıxsunaslıgının": 7979,
      "oxuyur": 7980,
      "qanunverıcı": 7981,
      "ehtıyacı": 7982,
      "monastırının": 7983,
      "basarkecər": 7984,
      "dəstəsını": 7985,
      "qaytarılması": 7986,
      "yonəlt": 7987,
      "cagatay": 7988,
      "vurusan": 7989,
      "orıjınalından": 7990,
      "ıstısmar": 7991,
      "tehranda": 7992,
      "ədalətlı": 7993,
      "kompleks": 7994,
      "yəhudı": 7995,
      "xılafətının": 7996,
      "karyagının": 7997,
      "dıalektlərı": 7998,
      "rıtual": 7999,
      "ıxtısas": 8000,
      "dəhlız": 8001,
      "keramıka": 8002,
      "lovhə": 8003,
      "portnag": 8004,
      "vassal": 8005,
      "luguna": 8006,
      "lətıfələr": 8007,
      "gostərıcılər": 8008,
      "gostərıcılərı": 8009,
      "dəyısdırılərək": 8010,
      "xadımlərı": 8011,
      "981": 8012,
      "xrıstıanlıqdan": 8013,
      "akademıyası": 8014,
      "publısher": 8015,
      "xəttatlıq": 8016,
      "konfransında": 8017,
      "lenının": 8018,
      "topcubas": 8019,
      "əbdurrəhman": 8020,
      "faızını": 8021,
      "kapıtalıst": 8022,
      "kaval": 8023,
      "kartlı": 8024,
      "qələbəsı": 8025,
      "كانت": 8026,
      "təsəkkul": 8027,
      "avtomasın": 8028,
      "kolonn": 8029,
      "ınanclarında": 8030,
      "faktıkı": 8031,
      "keyfıyyət": 8032,
      "pavel": 8033,
      "nəbatı": 8034,
      "acagına": 8035,
      "mocuz": 8036,
      "məzarlıq": 8037,
      "obyekt": 8038,
      "donəmındə": 8039,
      "tapsırıgı": 8040,
      "xurrəmılər": 8041,
      "xərac": 8042,
      "yapon": 8043,
      "ıgıd": 8044,
      "yardımı": 8045,
      "artıllerıya": 8046,
      "səmsəddın": 8047,
      "zəhmətkes": 8048,
      "nıyazı": 8049,
      "qayıdan": 8050,
      "semıramı": 8051,
      "تحت": 8052,
      "armenı": 8053,
      "kotlyar": 8054,
      "vıdadı": 8055,
      "separatcı": 8056,
      "laborator": 8057,
      "qənımət": 8058,
      "amansız": 8059,
      "mıllıləsdırılməsı": 8060,
      "culture": 8061,
      "mesopotamıya": 8062,
      "suqutundan": 8063,
      "benkendorfun": 8064,
      "imadəddın": 8065,
      "trupp": 8066,
      "məhəbbət": 8067,
      "koməyınə": 8068,
      "sahsevən": 8069,
      "fəxrəddın": 8070,
      "brıtanıya": 8071,
      "təqdırdə": 8072,
      "həftə": 8073,
      "stalınə": 8074,
      "ارمينية": 8075,
      "səyyahı": 8076,
      "ingıltərənın": 8077,
      "zeynalabdın": 8078,
      "bıbıheybət": 8079,
      "kralı": 8080,
      "دربند": 8081,
      "olkəsınə": 8082,
      "sıgınacaq": 8083,
      "lıqrafıya": 8084,
      "ıstənılən": 8085,
      "ıttıham": 8086,
      "bılavasıtə": 8087,
      "stelanın": 8088,
      "mezolıt": 8089,
      "aıdıyy": 8090,
      "habsburq": 8091,
      "pılləlı": 8092,
      "səbustər": 8093,
      "mukəmməl": 8094,
      "sıvılız": 8095,
      "mustəsna": 8096,
      "musadırə": 8097,
      "məktubu": 8098,
      "əfrasıyab": 8099,
      "novbədənkənar": 8100,
      "119": 8101,
      "5000": 8102,
      "67": 8103,
      "700": 8104,
      "81": 8105,
      "aj": 8106,
      "bərə": 8107,
      "boz": 8108,
      "bəsının": 8109,
      "bəsrə": 8110,
      "cıy": 8111,
      "cov": 8112,
      "cası": 8113,
      "ces": 8114,
      "cak": 8115,
      "cələ": 8116,
      "cəsındə": 8117,
      "cem": 8118,
      "cagı": 8119,
      "capar": 8120,
      "dy": 8121,
      "dlu": 8122,
      "doz": 8123,
      "doldurul": 8124,
      "emın": 8125,
      "emalı": 8126,
      "fın": 8127,
      "far": 8128,
      "gal": 8129,
      "gre": 8130,
      "gedərək": 8131,
      "getməyə": 8132,
      "gəvər": 8133,
      "hanı": 8134,
      "hasım": 8135,
      "həst": 8136,
      "ib": 8137,
      "ikın": 8138,
      "jar": 8139,
      "kal": 8140,
      "karı": 8141,
      "kub": 8142,
      "kum": 8143,
      "kalan": 8144,
      "klub": 8145,
      "lax": 8146,
      "lısə": 8147,
      "lob": 8148,
      "munun": 8149,
      "molo": 8150,
      "nır": 8151,
      "ndə": 8152,
      "nən": 8153,
      "nad": 8154,
      "nec": 8155,
      "nıt": 8156,
      "nıyyat": 8157,
      "nıyyətındə": 8158,
      "odu": 8159,
      "pık": 8160,
      "pac": 8161,
      "pom": 8162,
      "pərı": 8163,
      "psıx": 8164,
      "qra": 8165,
      "qog": 8166,
      "qıt": 8167,
      "qqı": 8168,
      "qadının": 8169,
      "rax": 8170,
      "rız": 8171,
      "rom": 8172,
      "rob": 8173,
      "ramı": 8174,
      "ramız": 8175,
      "rabı": 8176,
      "sılın": 8177,
      "sch": 8178,
      "tp": 8179,
      "ts": 8180,
      "tus": 8181,
      "tısı": 8182,
      "tma": 8183,
      "tran": 8184,
      "tagı": 8185,
      "tənın": 8186,
      "ucu": 8187,
      "ve": 8188,
      "vu": 8189,
      "vet": 8190,
      "vag": 8191,
      "vərə": 8192,
      "vurdu": 8193,
      "vuf": 8194,
      "vuqar": 8195,
      "wer": 8196,
      "wıt": 8197,
      "xəm": 8198,
      "xız": 8199,
      "xuz": 8200,
      "xına": 8201,
      "xəy": 8202,
      "xrı": 8203,
      "zum": 8204,
      "zələ": 8205,
      "zulu": 8206,
      "ıan": 8207,
      "ıcan": 8208,
      "ədı": 8209,
      "əqa": 8210,
      "əlıy": 8211,
      "ələrının": 8212,
      "əzə": 8213,
      "əbı": 8214,
      "ав": 8215,
      "вы": 8216,
      "все": 8217,
      "гор": 8218,
      "дж": 8219,
      "дер": 8220,
      "дре": 8221,
      "лм": 8222,
      "мя": 8223,
      "не": 8224,
      "нов": 8225,
      "па": 8226,
      "про": 8227,
      "со": 8228,
      "сь": 8229,
      "сев": 8230,
      "соб": 8231,
      "уб": 8232,
      "уп": 8233,
      "ур": 8234,
      "цар": 8235,
      "чале": 8236,
      "ша": 8237,
      "элм": 8238,
      "ար": 8239,
      "اص": 8240,
      "افت": 8241,
      "بة": 8242,
      "بق": 8243,
      "بند": 8244,
      "جمع": 8245,
      "جوان": 8246,
      "ساح": 8247,
      "شود": 8248,
      "شیر": 8249,
      "صاح": 8250,
      "طر": 8251,
      "طبر": 8252,
      "غة": 8253,
      "فى": 8254,
      "قان": 8255,
      "كمان": 8256,
      "لها": 8257,
      "مه": 8258,
      "موق": 8259,
      "نی": 8260,
      "نجه": 8261,
      "وع": 8262,
      "وبه": 8263,
      "يد": 8264,
      "یت": 8265,
      "anan": 8266,
      "anlıq": 8267,
      "ankar": 8268,
      "anca": 8269,
      "andr": 8270,
      "arpa": 8271,
      "arutun": 8272,
      "dəd": 8273,
      "ısık": 8274,
      "ısgəncə": 8275,
      "asıl": 8276,
      "asus": 8277,
      "asur": 8278,
      "asel": 8279,
      "assur": 8280,
      "asırı": 8281,
      "mələrını": 8282,
      "unter": 8283,
      "ayla": 8284,
      "ayırdı": 8285,
      "lımı": 8286,
      "lıtık": 8287,
      "dalı": 8288,
      "əslı": 8289,
      "əsılzadə": 8290,
      "dıd": 8291,
      "azıy": 8292,
      "alk": 8293,
      "alat": 8294,
      "alında": 8295,
      "aldıgı": 8296,
      "lardır": 8297,
      "ıyaların": 8298,
      "ıyalarının": 8299,
      "urfa": 8300,
      "ətındə": 8301,
      "olmagı": 8302,
      "erm": 8303,
      "erıst": 8304,
      "dırıb": 8305,
      "dırma": 8306,
      "dırırdı": 8307,
      "onım": 8308,
      "cıh": 8309,
      "cıgır": 8310,
      "ovlad": 8311,
      "atdan": 8312,
      "atında": 8313,
      "atla": 8314,
      "ələm": 8315,
      "ələyən": 8316,
      "oranın": 8317,
      "oraya": 8318,
      "aqqala": 8319,
      "dılın": 8320,
      "dılık": 8321,
      "etım": 8322,
      "etməlıdır": 8323,
      "təfə": 8324,
      "təmır": 8325,
      "təcılı": 8326,
      "təvarı": 8327,
      "abqar": 8328,
      "abaqa": 8329,
      "səlı": 8330,
      "səmı": 8331,
      "səlım": 8332,
      "mutəx": 8333,
      "mutəsək": 8334,
      "sıdı": 8335,
      "ınızm": 8336,
      "dana": 8337,
      "agoz": 8338,
      "agsu": 8339,
      "agından": 8340,
      "ama": 8341,
      "aması": 8342,
      "but": 8343,
      "bukı": 8344,
      "buga": 8345,
      "mənasını": 8346,
      "ləh": 8347,
      "ləmıs": 8348,
      "ləcək": 8349,
      "ləkıt": 8350,
      "axsam": 8351,
      "muslum": 8352,
      "dovlə": 8353,
      "dugunu": 8354,
      "duyunu": 8355,
      "oyrə": 8356,
      "osunda": 8357,
      "osof": 8358,
      "cəp": 8359,
      "edılsə": 8360,
      "basc": 8361,
      "təsırə": 8362,
      "təsbıt": 8363,
      "təsvıq": 8364,
      "qaras": 8365,
      "ıyyətə": 8366,
      "land": 8367,
      "ucbulaq": 8368,
      "uzunun": 8369,
      "uzuk": 8370,
      "əvvar": 8371,
      "məsu": 8372,
      "məsın": 8373,
      "məsul": 8374,
      "eskadr": 8375,
      "evındə": 8376,
      "evlərın": 8377,
      "verərək": 8378,
      "verdılər": 8379,
      "verırdılər": 8380,
      "verıləcək": 8381,
      "akıl": 8382,
      "akert": 8383,
      "sahının": 8384,
      "sahlıq": 8385,
      "sahəsınə": 8386,
      "məktəbın": 8387,
      "əsrlərdən": 8388,
      "ozundən": 8389,
      "ogur": 8390,
      "yard": 8391,
      "yaralı": 8392,
      "yarada": 8393,
      "həmzə": 8394,
      "əyının": 8395,
      "ıqta": 8396,
      "2018": 8397,
      "sərıf": 8398,
      "sərdəst": 8399,
      "sərguzəs": 8400,
      "1847": 8401,
      "1837": 8402,
      "yerlər": 8403,
      "yerını": 8404,
      "yerlərın": 8405,
      "yerlərını": 8406,
      "yermol": 8407,
      "dərk": 8408,
      "qazıyev": 8409,
      "ıcma": 8410,
      "ıcərı": 8411,
      "ıcbarı": 8412,
      "olunmasını": 8413,
      "kecməyə": 8414,
      "yanacaq": 8415,
      "apur": 8416,
      "adətı": 8417,
      "gorur": 8418,
      "dovlətə": 8419,
      "dovlətındə": 8420,
      "dovlətdən": 8421,
      "acdı": 8422,
      "gunlərı": 8423,
      "gunduz": 8424,
      "kılərə": 8425,
      "istəx": 8426,
      "istəxr": 8427,
      "qalın": 8428,
      "qaler": 8429,
      "yazılması": 8430,
      "tunda": 8431,
      "naıb": 8432,
      "bəylərın": 8433,
      "ləsının": 8434,
      "ektıv": 8435,
      "uktıv": 8436,
      "alız": 8437,
      "mərhə": 8438,
      "bərqərar": 8439,
      "bərgus": 8440,
      "muhacır": 8441,
      "sıyanın": 8442,
      "sıyaların": 8443,
      "sıyalarını": 8444,
      "fəxrı": 8445,
      "mayıl": 8446,
      "səhərlərın": 8447,
      "yasan": 8448,
      "yastı": 8449,
      "vardı": 8450,
      "sırı": 8451,
      "sırnıyyat": 8452,
      "adamın": 8453,
      "mılyard": 8454,
      "olardı": 8455,
      "sulu": 8456,
      "qafar": 8457,
      "bıləs": 8458,
      "bılmırdı": 8459,
      "bolməsı": 8460,
      "boluy": 8461,
      "qafqazdan": 8462,
      "brov": 8463,
      "məddın": 8464,
      "daglara": 8465,
      "dagılmıs": 8466,
      "daglarına": 8467,
      "dagılmasından": 8468,
      "170": 8469,
      "1720": 8470,
      "1723": 8471,
      "1722": 8472,
      "1797": 8473,
      "boya": 8474,
      "الكر": 8475,
      "الخزر": 8476,
      "kecırə": 8477,
      "kecırməsı": 8478,
      "kecırırlər": 8479,
      "qarabaglar": 8480,
      "hakımlərın": 8481,
      "artmısdı": 8482,
      "artıstı": 8483,
      "ermənıstanı": 8484,
      "emat": 8485,
      "sovetlərın": 8486,
      "gəlməsını": 8487,
      "gəldıyını": 8488,
      "əlıaga": 8489,
      "gostərılmıs": 8490,
      "kınemat": 8491,
      "respublıkasında": 8492,
      "qanadlı": 8493,
      "xılaskar": 8494,
      "ortaları": 8495,
      "ortalarına": 8496,
      "cılan": 8497,
      "kocməsı": 8498,
      "human": 8499,
      "karl": 8500,
      "107": 8501,
      "haqlı": 8502,
      "bunda": 8503,
      "bunları": 8504,
      "lamaga": 8505,
      "sılkı": 8506,
      "əsərlərını": 8507,
      "həkım": 8508,
      "edənlər": 8509,
      "cənubdan": 8510,
      "rəz": 8511,
      "rəbı": 8512,
      "rəcəb": 8513,
      "munbıt": 8514,
      "demısdı": 8515,
      "130": 8516,
      "1316": 8517,
      "muxtəsər": 8518,
      "gene": 8519,
      "yasayır": 8520,
      "studı": 8521,
      "edıs": 8522,
      "edes": 8523,
      "qərıb": 8524,
      "xususıyyətı": 8525,
      "saırlər": 8526,
      "barəsındə": 8527,
      "torpagın": 8528,
      "yerləsməsı": 8529,
      "1447": 8530,
      "vırx": 8531,
      "təsvırını": 8532,
      "konstr": 8533,
      "qurgu": 8534,
      "tutmusdu": 8535,
      "həyatına": 8536,
      "qayd": 8537,
      "qaydası": 8538,
      "kurə": 8539,
      "kursu": 8540,
      "qurulan": 8541,
      "rəsmən": 8542,
      "rəsıd": 8543,
      "pret": 8544,
      "prokur": 8545,
      "alınırdı": 8546,
      "park": 8547,
      "parca": 8548,
      "ternın": 8549,
      "topa": 8550,
      "toplanan": 8551,
      "toplayaraq": 8552,
      "kocuruləcək": 8553,
      "əsənət": 8554,
      "qərarını": 8555,
      "gəncədən": 8556,
      "gəncəvının": 8557,
      "ustac": 8558,
      "cəkdı": 8559,
      "qəzasına": 8560,
      "sayın": 8561,
      "sayının": 8562,
      "sayılırdı": 8563,
      "ıstıq": 8564,
      "aparmısdır": 8565,
      "aparıldı": 8566,
      "formasında": 8567,
      "nızə": 8568,
      "tuncdan": 8569,
      "rəhbərlərının": 8570,
      "rəhbərlıyınə": 8571,
      "sırvanının": 8572,
      "saxlamaq": 8573,
      "sədd": 8574,
      "sədərək": 8575,
      "sultanlıgı": 8576,
      "sultanlıgın": 8577,
      "gondərmısdı": 8578,
      "secılmıs": 8579,
      "halında": 8580,
      "halbukı": 8581,
      "mobıl": 8582,
      "numayəndələrın": 8583,
      "numayəndələrınə": 8584,
      "rastr": 8585,
      "yollanan": 8586,
      "yollandı": 8587,
      "kunc": 8588,
      "cısıdır": 8589,
      "pasaya": 8590,
      "tıqran": 8591,
      "اری": 8592,
      "polyak": 8593,
      "ıldıgını": 8594,
      "tədrıc": 8595,
      "yaranıb": 8596,
      "yaranmasına": 8597,
      "yaranmasında": 8598,
      "kərı": 8599,
      "кара": 8600,
      "catdırılır": 8601,
      "omor": 8602,
      "ıstəmə": 8603,
      "edılənlərın": 8604,
      "fılosof": 8605,
      "payına": 8606,
      "1902": 8607,
      "namələr": 8608,
      "quvvəyə": 8609,
      "qarsıya": 8610,
      "partıyanın": 8611,
      "partıyasından": 8612,
      "vılayətlər": 8613,
      "vılayətındə": 8614,
      "vılayətını": 8615,
      "vılayətlərın": 8616,
      "vılayətlərındə": 8617,
      "gozlə": 8618,
      "maral": 8619,
      "cəmıyyətının": 8620,
      "cəmazıy": 8621,
      "ərazılərındən": 8622,
      "olurlar": 8623,
      "ıstırahət": 8624,
      "sılahlar": 8625,
      "sılahdası": 8626,
      "mənbədə": 8627,
      "mənbələrə": 8628,
      "qanunlar": 8629,
      "sunı": 8630,
      "sahıblərınə": 8631,
      "trıb": 8632,
      "asıyadan": 8633,
      "sınaq": 8634,
      "ıdarəetmə": 8635,
      "nəzərdən": 8636,
      "sısıanova": 8637,
      "duzgun": 8638,
      "sərhədlərınə": 8639,
      "mubarızənı": 8640,
      "های": 8641,
      "əlamət": 8642,
      "muharıbədən": 8643,
      "bıldırırlər": 8644,
      "bıldırdıyınə": 8645,
      "ətraflı": 8646,
      "dəyısdırılməsı": 8647,
      "qətna": 8648,
      "ərəblərın": 8649,
      "tayfası": 8650,
      "tayfaların": 8651,
      "neftının": 8652,
      "neftını": 8653,
      "yanvarda": 8654,
      "bayragının": 8655,
      "yaratmısdı": 8656,
      "yaratmaga": 8657,
      "yoxa": 8658,
      "cınah": 8659,
      "sakır": 8660,
      "etdırdı": 8661,
      "munasıbətı": 8662,
      "tıkmələr": 8663,
      "tələbınə": 8664,
      "zıddıyyət": 8665,
      "baslanan": 8666,
      "sıyasını": 8667,
      "əsgərov": 8668,
      "əsgərlərın": 8669,
      "əsgərlərının": 8670,
      "ənənəsındə": 8671,
      "rəqab": 8672,
      "yataq": 8673,
      "yataqları": 8674,
      "gətırmək": 8675,
      "gətırılməsı": 8676,
      "munasıbətlərının": 8677,
      "muəyyənləsdırıl": 8678,
      "bınaları": 8679,
      "etməyən": 8680,
      "sənədlı": 8681,
      "sənədlərı": 8682,
      "guclə": 8683,
      "sarayına": 8684,
      "saraylarda": 8685,
      "dəstələrın": 8686,
      "bala": 8687,
      "soydasları": 8688,
      "baslayırlar": 8689,
      "ustunluyu": 8690,
      "qəbırlərındən": 8691,
      "cıxarmısdır": 8692,
      "cıxarılan": 8693,
      "deyılən": 8694,
      "deyıldır": 8695,
      "dıktat": 8696,
      "məsələlərdən": 8697,
      "fatma": 8698,
      "meyvə": 8699,
      "qoyulan": 8700,
      "bolgələr": 8701,
      "bolgələrı": 8702,
      "bolgələrdə": 8703,
      "bolgələrındən": 8704,
      "muəllıflərın": 8705,
      "vaxta": 8706,
      "vaxtdan": 8707,
      "1801": 8708,
      "1802": 8709,
      "rayonları": 8710,
      "huququna": 8711,
      "ilqar": 8712,
      "ilyas": 8713,
      "məhkəmələrının": 8714,
      "dayaq": 8715,
      "1959": 8716,
      "formalasır": 8717,
      "imer": 8718,
      "sulhunun": 8719,
      "gedə": 8720,
      "geos": 8721,
      "mərkəzlərındən": 8722,
      "dulus": 8723,
      "vura": 8724,
      "avropaya": 8725,
      "hokumətını": 8726,
      "təskılatlarının": 8727,
      "нау": 8728,
      "начале": 8729,
      "məruzəsındə": 8730,
      "sənətındə": 8731,
      "hazırlanır": 8732,
      "hazırlanmısdır": 8733,
      "mazut": 8734,
      "sahbanunun": 8735,
      "gırməsı": 8736,
      "fıkrət": 8737,
      "mıllətının": 8738,
      "mıllətcı": 8739,
      "fərmanla": 8740,
      "fərmanına": 8741,
      "əhmədın": 8742,
      "qazanmıs": 8743,
      "cılıgın": 8744,
      "1895": 8745,
      "paytak": 8746,
      "mudafıəsı": 8747,
      "nəsrıyyatı": 8748,
      "mehdıyev": 8749,
      "adlandırılması": 8750,
      "adlandırılırdı": 8751,
      "qıyamı": 8752,
      "quluz": 8753,
      "yetırır": 8754,
      "yetırılır": 8755,
      "yetırıldı": 8756,
      "ınqılabına": 8757,
      "mıdıyanın": 8758,
      "mıdıyalılar": 8759,
      "komandanlıq": 8760,
      "kamanca": 8761,
      "1735": 8762,
      "dunyası": 8763,
      "hıssələrındə": 8764,
      "konstıtusıyanın": 8765,
      "camal": 8766,
      "dordlər": 8767,
      "ugurla": 8768,
      "kəndlılərının": 8769,
      "odsk": 8770,
      "məmmədhəsən": 8771,
      "məmmədquluz": 8772,
      "sıyasətındə": 8773,
      "cagıraraq": 8774,
      "cagırılıb": 8775,
      "krıst": 8776,
      "satrap": 8777,
      "qacaqcılıq": 8778,
      "hamar": 8779,
      "nagara": 8780,
      "арх": 8781,
      "lızm": 8782,
      "usaqlarının": 8783,
      "aktının": 8784,
      "aktlarının": 8785,
      "yazıcı": 8786,
      "sufıyan": 8787,
      "muhasırədə": 8788,
      "xəbərını": 8789,
      "mulkıyyətı": 8790,
      "kımsə": 8791,
      "kurdlərın": 8792,
      "məktəblərın": 8793,
      "regıonu": 8794,
      "ское": 8795,
      "ittıfaqında": 8796,
      "bıtısık": 8797,
      "qovus": 8798,
      "imperıyasında": 8799,
      "tıkılıb": 8800,
      "lasdırdı": 8801,
      "moskvaya": 8802,
      "sahbanular": 8803,
      "روم": 8804,
      "oyunlarında": 8805,
      "ətrafındakı": 8806,
      "tədqıqatcı": 8807,
      "əvəzındə": 8808,
      "ısləy": 8809,
      "məskunlasmıs": 8810,
      "nətıcələrı": 8811,
      "arranda": 8812,
      "olmadan": 8813,
      "olmadıgı": 8814,
      "turkıyədə": 8815,
      "məxsusdur": 8816,
      "esıdən": 8817,
      "xuday": 8818,
      "axırda": 8819,
      "dusmənə": 8820,
      "heydərov": 8821,
      "qəlb": 8822,
      "vahıdı": 8823,
      "məhsulları": 8824,
      "məhsuldar": 8825,
      "muzakırələr": 8826,
      "zıyal": 8827,
      "cəzası": 8828,
      "fıkırlərı": 8829,
      "əməlıyyatları": 8830,
      "deportasıyaya": 8831,
      "goycay": 8832,
      "وده": 8833,
      "orıental": 8834,
      "sıstemını": 8835,
      "pərvər": 8836,
      "saban": 8837,
      "ıfadəsı": 8838,
      "məqsədını": 8839,
      "bayatı": 8840,
      "kucə": 8841,
      "səyahət": 8842,
      "vəzıfəsındən": 8843,
      "ıncəsənətı": 8844,
      "yuzlərlə": 8845,
      "bəyannamənın": 8846,
      "gədəbəyın": 8847,
      "rumlu": 8848,
      "xanlıqlarının": 8849,
      "həməvı": 8850,
      "parcası": 8851,
      "parcalardan": 8852,
      "qəsəbə": 8853,
      "spır": 8854,
      "qorunan": 8855,
      "1885": 8856,
      "1887": 8857,
      "dərvıslər": 8858,
      "sədrının": 8859,
      "adlandırmısdır": 8860,
      "1607": 8861,
      "karvansaraların": 8862,
      "layıhəsının": 8863,
      "culuk": 8864,
      "yekat": 8865,
      "zorxana": 8866,
      "mıqyasında": 8867,
      "sərkərdələrı": 8868,
      "lemın": 8869,
      "petrus": 8870,
      "rutul": 8871,
      "rutbə": 8872,
      "евич": 8873,
      "məyın": 8874,
      "aydınlıq": 8875,
      "rayonundan": 8876,
      "باد": 8877,
      "oradakı": 8878,
      "saırlərı": 8879,
      "oynayan": 8880,
      "qaynaqlan": 8881,
      "ıdeologıyası": 8882,
      "əsaslanaraq": 8883,
      "borkıyaru": 8884,
      "km2": 8885,
      "km²": 8886,
      "nəhəng": 8887,
      "səxsə": 8888,
      "sahələrının": 8889,
      "cevrılısındən": 8890,
      "unıversıtetının": 8891,
      "وهو": 8892,
      "ulduzun": 8893,
      "ıdarənın": 8894,
      "seırlərı": 8895,
      "gədəbəydə": 8896,
      "мах": 8897,
      "estrada": 8898,
      "məclısının": 8899,
      "padsahı": 8900,
      "историче": 8901,
      "isgəndərov": 8902,
      "problemlərdən": 8903,
      "carızmın": 8904,
      "cahangır": 8905,
      "xursıd": 8906,
      "mıtınqı": 8907,
      "məkdədır": 8908,
      "baglanmıs": 8909,
      "arsakın": 8910,
      "cəmıyyətın": 8911,
      "cəmıyyətındə": 8912,
      "muqavımətını": 8913,
      "faktları": 8914,
      "soltan": 8915,
      "qapılar": 8916,
      "lavas": 8917,
      "mərhələsı": 8918,
      "mərhələsınə": 8919,
      "rayonlarda": 8920,
      "doyusculərı": 8921,
      "qıymətlən": 8922,
      "qıymətləndır": 8923,
      "movzuları": 8924,
      "borkıyaruqun": 8925,
      "ohdəs": 8926,
      "qələmə": 8927,
      "xadımı": 8928,
      "xorasanda": 8929,
      "nekropolun": 8930,
      "olkəyə": 8931,
      "suvarısı": 8932,
      "suvarma": 8933,
      "fəallas": 8934,
      "darmadagın": 8935,
      "xususıyyətlərı": 8936,
      "ımperatoru": 8937,
      "geyımlərı": 8938,
      "benzın": 8939,
      "nəvvab": 8940,
      "əmlakı": 8941,
      "qrıqoryev": 8942,
      "gusəlı": 8943,
      "hovan": 8944,
      "ikp": 8945,
      "بلد": 8946,
      "ıyununda": 8947,
      "qarnızonu": 8948,
      "nagıllar": 8949,
      "yevgenı": 8950,
      "yevlax": 8951,
      "ник": 8952,
      "یره": 8953,
      "vəhsıl": 8954,
      "hekayə": 8955,
      "səlahıyyətlı": 8956,
      "rəvvadılər": 8957,
      "sendrık": 8958,
      "گرجستان": 8959,
      "ərzaqla": 8960,
      "vergılərın": 8961,
      "bunlardır": 8962,
      "hımayəsı": 8963,
      "idarəsının": 8964,
      "rzaıyyə": 8965,
      "tacır": 8966,
      "səkkızgusəlı": 8967,
      "movqelərını": 8968,
      "materıallar": 8969,
      "vadar": 8970,
      "evlənmısdı": 8971,
      "gundəmə": 8972,
      "gundəlık": 8973,
      "bəzədılməsındə": 8974,
      "arasdırmalar": 8975,
      "nufuzlu": 8976,
      "redaktorlugu": 8977,
      "тика": 8978,
      "mənımsə": 8979,
      "suverenlıyı": 8980,
      "reınteqrasıyası": 8981,
      "mubahıs": 8982,
      "noqtələr": 8983,
      "əmlakının": 8984,
      "بحيرة": 8985,
      "təbərzın": 8986,
      "radıo": 8987,
      "uzanan": 8988,
      "lətıfələrı": 8989,
      "cenqu": 8990,
      "sopenın": 8991,
      "uslubu": 8992,
      "tarıxcılərının": 8993,
      "ekspedıs": 8994,
      "tıtuludur": 8995,
      "romanı": 8996,
      "akademıyasının": 8997,
      "ucmuədz": 8998,
      "məntəqəsı": 8999,
      "təsəbbus": 9000,
      "qulluqcu": 9001,
      "dehıstandan": 9002,
      "kaxetıya": 9003,
      "paqan": 9004,
      "ıxtır": 9005,
      "əcdad": 9006,
      "سلط": 9007,
      "təsəvvuf": 9008,
      "zulmkar": 9009,
      "qubernıyalarında": 9010,
      "dıvızıyanın": 9011,
      "fursət": 9012,
      "əjdaha": 9013,
      "ных": 9014,
      "məsafə": 9015,
      "ıstefa": 9016,
      "torətdıklərı": 9017,
      "hesablama": 9018,
      "gumru": 9019,
      "http": 9020,
      "hasar": 9021,
      "mensevık": 9022,
      "yalancı": 9023,
      "очер": 9024,
      "خراسان": 9025,
      "təcrub": 9026,
      "hərflərı": 9027,
      "hərəmxana": 9028,
      "elxanılər": 9029,
      "emblem": 9030,
      "stella": 9031,
      "təyyarə": 9032,
      "asagıdakıl": 9033,
      "ımzaladıgı": 9034,
      "nəqsıbəndı": 9035,
      "admınıstrasıyası": 9036,
      "bıblı": 9037,
      "toxuc": 9038,
      "كنار": 9039,
      "می‌": 9040,
      "kocub": 9041,
      "eldənızlər": 9042,
      "muhıtındə": 9043,
      "carpaz": 9044,
      "baslangıcında": 9045,
      "hacıbəyovun": 9046,
      "kollektıv": 9047,
      "yaradıcılıgında": 9048,
      "mənafeyını": 9049,
      "muqayısədə": 9050,
      "fıtnə": 9051,
      "xınıslı": 9052,
      "اعمال": 9053,
      "ıllust": 9054,
      "ıstəklərı": 9055,
      "orucov": 9056,
      "kecıdın": 9057,
      "xəlvətə": 9058,
      "политика": 9059,
      "guzəstlər": 9060,
      "qənaətınə": 9061,
      "qrıboyedovun": 9062,
      "fızıkı": 9063,
      "radrax": 9064,
      "rəsıdəd": 9065,
      "xəncər": 9066,
      "ınterpret": 9067,
      "duzənlık": 9068,
      "qədəm": 9069,
      "həmsədrlərı": 9070,
      "surxay": 9071,
      "hadısəsı": 9072,
      "народов": 9073,
      "kampanıyası": 9074,
      "azerbaıjan": 9075,
      "iqtısadı": 9076,
      "səcıyyəvı": 9077,
      "huzur": 9078,
      "iberıya": 9079,
      "pusqu": 9080,
      "salarılər": 9081,
      "خلاط": 9082,
      "نمای": 9083,
      "ınfrastr": 9084,
      "komınternın": 9085,
      "suquta": 9086,
      "caucasus": 9087,
      "дагестан": 9088,
      "yavas": 9089,
      "سلام": 9090,
      "təkıd": 9091,
      "buynuz": 9092,
      "cuxursəəd": 9093,
      "qəzəb": 9094,
      "stolıpın": 9095,
      "təntənəlı": 9096,
      "əzızbəyov": 9097,
      "برزند": 9098,
      "butovluyunun": 9099,
      "tərəkəmə": 9100,
      "kərbəlayı": 9101,
      "nobel": 9102,
      "pılək": 9103,
      "rzaqulu": 9104,
      "tetradrax": 9105,
      "vıcdan": 9106,
      "خوانند": 9107,
      "عراق": 9108,
      "əsədov": 9109,
      "cədvəl": 9110,
      "rajlı": 9111,
      "malıyyələs": 9112,
      "oxsayır": 9113,
      "mıllıyətcı": 9114,
      "konkret": 9115,
      "gullələn": 9116,
      "incəsənət": 9117,
      "nıgarı": 9118,
      "publıshers": 9119,
      "kavaler": 9120,
      "aıdıyyətı": 9121,
      "cələbı": 9122,
      "ikıncısı": 9123,
      "kalankat": 9124,
      "pompey": 9125,
      "qravura": 9126,
      "robert": 9127,
      "xəmsə": 9128,
      "əbıvərdə": 9129,
      "север": 9130,
      "طبرستان": 9131,
      "təfək": 9132,
      "təvarıx": 9133,
      "mutəxəs": 9134,
      "mutəsəkkıl": 9135,
      "sərguzəstı": 9136,
      "istəxrı": 9137,
      "istəxrının": 9138,
      "rəbıul": 9139,
      "konstruktıv": 9140,
      "prokuror": 9141,
      "tədrıcən": 9142,
      "cəmazıyəl": 9143,
      "sendrıkov": 9144,
      "ınfrastruktur": 9145,
      "114": 9146,
      "230": 9147,
      "330": 9148,
      "450": 9149,
      "600": 9150,
      "642": 9151,
      "79": 9152,
      "900": 9153,
      "aedıa": 9154,
      "baycan": 9155,
      "bam": 9156,
      "balt": 9157,
      "badam": 9158,
      "bekt": 9159,
      "cas": 9160,
      "col": 9161,
      "ceh": 9162,
      "cıyə": 9163,
      "com": 9164,
      "cern": 9165,
      "dındə": 9166,
      "dasında": 9167,
      "doldur": 9168,
      "dolması": 9169,
      "flı": 9170,
      "fal": 9171,
      "faya": 9172,
      "fot": 9173,
      "go": 9174,
      "gım": 9175,
      "gırdı": 9176,
      "golun": 9177,
      "gaları": 9178,
      "golunun": 9179,
      "hol": 9180,
      "hat": 9181,
      "hbət": 9182,
      "ig": 9183,
      "kus": 9184,
      "kası": 9185,
      "klu": 9186,
      "kılərı": 9187,
      "kustun": 9188,
      "ly": 9189,
      "lası": 9190,
      "lılər": 9191,
      "lələ": 9192,
      "leh": 9193,
      "lılı": 9194,
      "mars": 9195,
      "nay": 9196,
      "nda": 9197,
      "nos": 9198,
      "nıyyət": 9199,
      "our": 9200,
      "omay": 9201,
      "ocaq": 9202,
      "olım": 9203,
      "pos": 9204,
      "pıya": 9205,
      "pak": 9206,
      "pırı": 9207,
      "post": 9208,
      "qlər": 9209,
      "qusu": 9210,
      "rev": 9211,
      "retı": 9212,
      "sələn": 9213,
      "talıb": 9214,
      "ucan": 9215,
      "vel": 9216,
      "vərı": 9217,
      "vaxtı": 9218,
      "venes": 9219,
      "was": 9220,
[...]
